{
  "version": "1.0",
  "truncation": null,
  "padding": null,
  "added_tokens": [
    {
      "id": 0,
      "content": "<pad>",
      "single_word": false,
      "lstrip": false,
      "rstrip": false,
      "normalized": false,
      "special": true
    },
    {
      "id": 1,
      "content": "<unk>",
      "single_word": false,
      "lstrip": false,
      "rstrip": false,
      "normalized": false,
      "special": true
    },
    {
      "id": 2,
      "content": "<bos>",
      "single_word": false,
      "lstrip": false,
      "rstrip": false,
      "normalized": false,
      "special": true
    },
    {
      "id": 3,
      "content": "<eos>",
      "single_word": false,
      "lstrip": false,
      "rstrip": false,
      "normalized": false,
      "special": true
    },
    {
      "id": 4,
      "content": "<image>",
      "single_word": false,
      "lstrip": false,
      "rstrip": false,
      "normalized": false,
      "special": true
    },
    {
      "id": 5,
      "content": "<video>",
      "single_word": false,
      "lstrip": false,
      "rstrip": false,
      "normalized": false,
      "special": true
    },
    {
      "id": 6,
      "content": "<text>",
      "single_word": false,
      "lstrip": false,
      "rstrip": false,
      "normalized": false,
      "special": true
    },
    {
      "id": 7,
      "content": "<audio>",
      "single_word": false,
      "lstrip": false,
      "rstrip": false,
      "normalized": false,
      "special": true
    },
    {
      "id": 8,
      "content": "<speech>",
      "single_word": false,
      "lstrip": false,
      "rstrip": false,
      "normalized": false,
      "special": true
    }
  ],
  "normalizer": {
    "type": "Sequence",
    "normalizers": [
      {
        "type": "NFKC"
      },
      {
        "type": "Lowercase"
      }
    ]
  },
  "pre_tokenizer": {
    "type": "ByteLevel",
    "add_prefix_space": false,
    "trim_offsets": true,
    "use_regex": true
  },
  "post_processor": {
    "type": "ByteLevel",
    "add_prefix_space": true,
    "trim_offsets": false,
    "use_regex": true
  },
  "decoder": null,
  "model": {
    "type": "BPE",
    "dropout": null,
    "unk_token": null,
    "continuing_subword_prefix": null,
    "end_of_word_suffix": null,
    "fuse_unk": false,
    "byte_fallback": false,
    "ignore_merges": false,
    "vocab": {
      "<pad>": 0,
      "<unk>": 1,
      "<bos>": 2,
      "<eos>": 3,
      "<image>": 4,
      "<video>": 5,
      "<text>": 6,
      "<audio>": 7,
      "<speech>": 8,
      "!": 9,
      "\"": 10,
      "#": 11,
      "$": 12,
      "%": 13,
      "&": 14,
      "'": 15,
      "(": 16,
      ")": 17,
      "*": 18,
      "+": 19,
      ",": 20,
      "-": 21,
      ".": 22,
      "/": 23,
      "0": 24,
      "1": 25,
      "2": 26,
      "3": 27,
      "4": 28,
      "5": 29,
      "6": 30,
      "7": 31,
      "8": 32,
      "9": 33,
      ":": 34,
      ";": 35,
      "<": 36,
      "=": 37,
      ">": 38,
      "?": 39,
      "@": 40,
      "[": 41,
      "\\": 42,
      "]": 43,
      "^": 44,
      "_": 45,
      "`": 46,
      "a": 47,
      "b": 48,
      "c": 49,
      "d": 50,
      "e": 51,
      "f": 52,
      "g": 53,
      "h": 54,
      "i": 55,
      "j": 56,
      "k": 57,
      "l": 58,
      "m": 59,
      "n": 60,
      "o": 61,
      "p": 62,
      "q": 63,
      "r": 64,
      "s": 65,
      "t": 66,
      "u": 67,
      "v": 68,
      "w": 69,
      "x": 70,
      "y": 71,
      "z": 72,
      "{": 73,
      "|": 74,
      "}": 75,
      "~": 76,
      "¡": 77,
      "¢": 78,
      "£": 79,
      "¤": 80,
      "¥": 81,
      "¦": 82,
      "§": 83,
      "¨": 84,
      "©": 85,
      "ª": 86,
      "«": 87,
      "¬": 88,
      "®": 89,
      "¯": 90,
      "°": 91,
      "±": 92,
      "²": 93,
      "³": 94,
      "´": 95,
      "µ": 96,
      "¶": 97,
      "·": 98,
      "¸": 99,
      "¹": 100,
      "º": 101,
      "»": 102,
      "¼": 103,
      "½": 104,
      "¾": 105,
      "¿": 106,
      "Â": 107,
      "Ã": 108,
      "Ä": 109,
      "Å": 110,
      "Æ": 111,
      "Ç": 112,
      "È": 113,
      "É": 114,
      "Ê": 115,
      "Ë": 116,
      "Ì": 117,
      "Í": 118,
      "Î": 119,
      "Ï": 120,
      "Ð": 121,
      "Ñ": 122,
      "Ò": 123,
      "Ó": 124,
      "Ô": 125,
      "Õ": 126,
      "Ö": 127,
      "×": 128,
      "Ø": 129,
      "Ù": 130,
      "Ú": 131,
      "Û": 132,
      "Ü": 133,
      "Ý": 134,
      "Þ": 135,
      "ß": 136,
      "à": 137,
      "á": 138,
      "â": 139,
      "ã": 140,
      "ä": 141,
      "å": 142,
      "æ": 143,
      "ç": 144,
      "è": 145,
      "é": 146,
      "ê": 147,
      "ë": 148,
      "ì": 149,
      "í": 150,
      "î": 151,
      "ï": 152,
      "ð": 153,
      "ó": 154,
      "ā": 155,
      "Ă": 156,
      "ă": 157,
      "ą": 158,
      "Ć": 159,
      "ć": 160,
      "Ĉ": 161,
      "ĉ": 162,
      "Ċ": 163,
      "ď": 164,
      "đ": 165,
      "Ē": 166,
      "Ĕ": 167,
      "ę": 168,
      "ě": 169,
      "Ġ": 170,
      "ġ": 171,
      "Ģ": 172,
      "ģ": 173,
      "Ĥ": 174,
      "ĥ": 175,
      "Ħ": 176,
      "ħ": 177,
      "Ĩ": 178,
      "ĩ": 179,
      "Ī": 180,
      "ī": 181,
      "Ĭ": 182,
      "ĭ": 183,
      "Į": 184,
      "į": 185,
      "İ": 186,
      "ı": 187,
      "Ĳ": 188,
      "ĳ": 189,
      "Ĵ": 190,
      "ĵ": 191,
      "Ķ": 192,
      "ķ": 193,
      "ĸ": 194,
      "Ĺ": 195,
      "ĺ": 196,
      "Ļ": 197,
      "ļ": 198,
      "Ľ": 199,
      "ľ": 200,
      "Ŀ": 201,
      "ŀ": 202,
      "Ł": 203,
      "ł": 204,
      "Ń": 205,
      "ĠĠ": 206,
      "Ġt": 207,
      "Ġa": 208,
      "he": 209,
      "in": 210,
      "on": 211,
      "er": 212,
      "Ġthe": 213,
      "re": 214,
      "Ġs": 215,
      "ĠĠĠĠ": 216,
      "Ġc": 217,
      "at": 218,
      "Ġo": 219,
      "en": 220,
      "an": 221,
      "or": 222,
      "Ġw": 223,
      "es": 224,
      "is": 225,
      "ed": 226,
      "it": 227,
      "Ġp": 228,
      "Ġb": 229,
      "Ġf": 230,
      "al": 231,
      "ar": 232,
      "Ġm": 233,
      "Ġin": 234,
      "Ġan": 235,
      "Ġof": 236,
      "Ġd": 237,
      "ro": 238,
      "ic": 239,
      "ing": 240,
      "ion": 241,
      "as": 242,
      "le": 243,
      "Ġand": 244,
      "Ġh": 245,
      "ou": 246,
      "Ġto": 247,
      "Ġn": 248,
      "st": 249,
      "Ġl": 250,
      "ĠĠĠ": 251,
      "ent": 252,
      "ĊĠĠĠĠ": 253,
      "Ġe": 254,
      "Ġre": 255,
      "Ġth": 256,
      "ct": 257,
      "il": 258,
      "el": 259,
      "Ġg": 260,
      "om": 261,
      "Ġ1": 262,
      "et": 263,
      "im": 264,
      "am": 265,
      "ol": 266,
      "un": 267,
      "id": 268,
      "Ġ(": 269,
      "ad": 270,
      "ur": 271,
      "us": 272,
      "ut": 273,
      "ri": 274,
      "Ġst": 275,
      "ch": 276,
      "ot": 277,
      "Ġ\"": 278,
      "ce": 279,
      "ation": 280,
      "ver": 281,
      "ag": 282,
      "ul": 283,
      "Ġhe": 284,
      "Ġcon": 285,
      "Ġfor": 286,
      "Ġas": 287,
      "Ġon": 288,
      "Ġis": 289,
      "ir": 290,
      "ly": 291,
      "ve": 292,
      "ig": 293,
      "ow": 294,
      "se": 295,
      "Ġbe": 296,
      "ra": 297,
      "ter": 298,
      "Ġ=": 299,
      "Ġ2": 300,
      "od": 301,
      "ith": 302,
      "ate": 303,
      "ĊĠĠĠ": 304,
      "pe": 305,
      "Ġwas": 306,
      "um": 307,
      "ay": 308,
      "th": 309,
      "est": 310,
      "Ġwith": 311,
      "em": 312,
      "ist": 313,
      "ĊĠĠĠĠĠĠĠĠ": 314,
      "Ġal": 315,
      "Ġv": 316,
      "and": 317,
      "rom": 318,
      "if": 319,
      "Ġit": 320,
      "Ġ{": 321,
      "00": 322,
      "Ġwh": 323,
      "ĊĠĠĠĠĠĠĠ": 324,
      "Ġde": 325,
      "ac": 326,
      "Ġj": 327,
      "op": 328,
      "Ġthat": 329,
      "ort": 330,
      "Ġ19": 331,
      "res": 332,
      "ab": 333,
      "Ġk": 334,
      "qu": 335,
      "Ġex": 336,
      "Ġun": 337,
      "Ġby": 338,
      "her": 339,
      "ers": 340,
      "up": 341,
      "oc": 342,
      "Ġch": 343,
      "ess": 344,
      "Ġcom": 345,
      "Ġ}": 346,
      "oun": 347,
      "Ġse": 348,
      "Ġr": 349,
      "Ġat": 350,
      "Ġpro": 351,
      "ĊĠ": 352,
      "'s": 353,
      "ex": 354,
      "Ġy": 355,
      "Ġfrom": 356,
      ");": 357,
      "Ġthis": 358,
      "ap": 359,
      "age": 360,
      "ain": 361,
      "ĊĠĠĠĠĠ": 362,
      "âĢ": 363,
      "os": 364,
      "ht": 365,
      "ld": 366,
      "all": 367,
      "iv": 368,
      "Ġor": 369,
      "ity": 370,
      "art": 371,
      "Ġ'": 372,
      "ore": 373,
      "con": 374,
      "ew": 375,
      "ill": 376,
      "ĉĉ": 377,
      "port": 378,
      "ies": 379,
      "ame": 380,
      "ian": 381,
      "ment": 382,
      "âĢĵ": 383,
      "Ġhis": 384,
      "Ġim": 385,
      "pt": 386,
      "cl": 387,
      "Ġare": 388,
      "to": 389,
      "ction": 390,
      "ard": 391,
      "ud": 392,
      "ory": 393,
      "pl": 394,
      "ber": 395,
      "ant": 396,
      "Ġi": 397,
      "Ġle": 398,
      "Ġsh": 399,
      "ak": 400,
      "\",": 401,
      "our": 402,
      "ich": 403,
      "end": 404,
      "ge": 405,
      "),": 406,
      "Ġnot": 407,
      "be": 408,
      "ue": 409,
      "og": 410,
      "ive": 411,
      "Ġus": 412,
      "ub": 413,
      "ere": 414,
      "ass": 415,
      "ial": 416,
      ").": 417,
      "ia": 418,
      "..": 419,
      "ure": 420,
      "Ġar": 421,
      "ine": 422,
      "ated": 423,
      "ug": 424,
      "esc": 425,
      "Ġro": 426,
      "Ġpl": 427,
      "der": 428,
      "ult": 429,
      "01": 430,
      "ect": 431,
      "ast": 432,
      "ary": 433,
      "Ġtr": 434,
      "Ġwere": 435,
      "ost": 436,
      "ip": 437,
      "Ġcl": 438,
      "ty": 439,
      "Ġconst": 440,
      "ave": 441,
      "ire": 442,
      "ĊĠĠĠĠĠĠĠĠĠĠĠ": 443,
      "iz": 444,
      "ust": 445,
      "**": 446,
      "ell": 447,
      "ical": 448,
      "Ġwhich": 449,
      "escri": 450,
      "ĊĠĠĠĠĠĠĠĠĠĠĠĠ": 451,
      "ish": 452,
      "',": 453,
      "19": 454,
      "out": 455,
      "Ġhad": 456,
      "Ġen": 457,
      "urn": 458,
      "com": 459,
      "ord": 460,
      "per": 461,
      "ould": 462,
      "ath": 463,
      "Ġ3": 464,
      "av": 465,
      "ack": 466,
      "Ġres": 467,
      "ok": 468,
      "ff": 469,
      "Ġman": 470,
      "de": 471,
      "Ġam": 472,
      "ren": 473,
      "Ġap": 474,
      "Ġcont": 475,
      "Ġwhe": 476,
      "Ġcomp": 477,
      "ong": 478,
      "ions": 479,
      "ther": 480,
      "one": 481,
      "ext": 482,
      "Ġad": 483,
      "ile": 484,
      "ry": 485,
      "--": 486,
      "ans": 487,
      "uc": 488,
      "ear": 489,
      "ous": 490,
      "Ġall": 491,
      "rit": 492,
      "ide": 493,
      "ang": 494,
      "ight": 495,
      "ind": 496,
      "Ġwor": 497,
      "Ġab": 498,
      "orm": 499,
      "Ġac": 500,
      "Ġbut": 501,
      "ke": 502,
      "ign": 503,
      "Ġcoun": 504,
      "Ġsc": 505,
      "Ġ0": 506,
      "pro": 507,
      "Ġif": 508,
      "Ġnew": 509,
      "ens": 510,
      "descri": 511,
      "rig": 512,
      "Ġ*": 513,
      "Ġret": 514,
      "able": 515,
      "ie": 516,
      "Ġimage": 517,
      "ime": 518,
      "Ġhave": 519,
      "so": 520,
      "ateg": 521,
      "Ġher": 522,
      "Ġ18": 523,
      "Ġsp": 524,
      "own": 525,
      "ations": 526,
      "elf": 527,
      "ice": 528,
      "Ġno": 529,
      "ĠâĢĵ": 530,
      "describe": 531,
      "act": 532,
      "02": 533,
      "are": 534,
      "Ċĉĉ": 535,
      "pect": 536,
      "Ġmar": 537,
      "Ġ4": 538,
      "Ġstr": 539,
      "ace": 540,
      "ib": 541,
      "ence": 542,
      "ome": 543,
      "Ġaf": 544,
      "te": 545,
      "ition": 546,
      "ph": 547,
      "Ġper": 548,
      "Ġcomm": 549,
      "vers": 550,
      "Ġpart": 551,
      "Ġone": 552,
      "Ġcan": 553,
      "ategory": 554,
      "ict": 555,
      "ks": 556,
      "Ġme": 557,
      "Ġgo": 558,
      "fer": 559,
      "ress": 560,
      "Ġhas": 561,
      "Ġup": 562,
      "ĊĠĠĠĠĠĠĠĠĠ": 563,
      "hed": 564,
      "ance": 565,
      "Ġcategory": 566,
      "Ġag": 567,
      "Ġ[": 568,
      "Ġ=>": 569,
      "Ġthey": 570,
      "Ġother": 571,
      "Ġtheir": 572,
      "lo": 573,
      "ase": 574,
      "Ġcol": 575,
      "Ġso": 576,
      "Ġdis": 577,
      "Ġshe": 578,
      "und": 579,
      "Ġits": 580,
      "man": 581,
      "ates": 582,
      "Ġ200": 583,
      "Ġra": 584,
      "irst": 585,
      "ode": 586,
      "Ġalso": 587,
      "the": 588,
      "tern": 589,
      "Ġwho": 590,
      "==": 591,
      "Ġne": 592,
      "ater": 593,
      "Ġtw": 594,
      "int": 595,
      "Ġreturn": 596,
      "get": 597,
      "//": 598,
      "Ġbo": 599,
      "ree": 600,
      "cess": 601,
      "Ġthere": 602,
      "aw": 603,
      "()": 604,
      "Ġ201": 605,
      "Ġ5": 606,
      "uch": 607,
      "ject": 608,
      "sh": 609,
      "ach": 610,
      "ite": 611,
      "Ġser": 612,
      "form": 613,
      "ces": 614,
      "Ġout": 615,
      "ican": 616,
      "str": 617,
      "Ġpre": 618,
      "Ġwe": 619,
      "ock": 620,
      "('": 621,
      "val": 622,
      "Ġfirst": 623,
      "old": 624,
      "ĠĠĠĠĠĠĠĠ": 625,
      "ild": 626,
      "Ġqu": 627,
      "clud": 628,
      "ally": 629,
      "ound": 630,
      "row": 631,
      "land": 632,
      "Ġ6": 633,
      "yn": 634,
      "umb": 635,
      "Ġhim": 636,
      "vel": 637,
      "Ġwhen": 638,
      "vent": 639,
      "Ġyou": 640,
      "ied": 641,
      ".\"": 642,
      "Ġco": 643,
      "Ġind": 644,
      "lect": 645,
      "Ġover": 646,
      "pon": 647,
      "ors": 648,
      "Ġem": 649,
      "Ġpar": 650,
      "Ġform": 651,
      "ved": 652,
      "ings": 653,
      "we": 654,
      "oug": 655,
      "Ġpr": 656,
      "Ġbeen": 657,
      "Ġdef": 658,
      "18": 659,
      "ser": 660,
      "ely": 661,
      "Ġpe": 662,
      "ail": 663,
      "Ġafter": 664,
      "ata": 665,
      "err": 666,
      "ubl": 667,
      "Ġtwo": 668,
      "Ġyear": 669,
      "Ġpol": 670,
      "Ġexpect": 671,
      "iel": 672,
      "Ġfr": 673,
      "ose": 674,
      "Ġte": 675,
      "Ġbl": 676,
      "ft": 677,
      "sc": 678,
      "name": 679,
      "iss": 680,
      "vi": 681,
      "Ġcent": 682,
      "Ġkn": 683,
      "Ġph": 684,
      "Ġmore": 685,
      "ix": 686,
      "ade": 687,
      "cont": 688,
      "put": 689,
      "ĊĊĠĠĠ": 690,
      "ited": 691,
      "odel": 692,
      "Ġdo": 693,
      "ple": 694,
      "orn": 695,
      "\":": 696,
      "les": 697,
      "ational": 698,
      "right": 699,
      "Ġty": 700,
      "Ġunder": 701,
      "Ġsome": 702,
      "ck": 703,
      "cre": 704,
      "Ġsup": 705,
      "ake": 706,
      "Ġthem": 707,
      "12": 708,
      "Ġgen": 709,
      "Ġinclud": 710,
      "ield": 711,
      "Ġamer": 712,
      "Ġsa": 713,
      "son": 714,
      "ents": 715,
      "Ġinto": 716,
      "ugh": 717,
      "Ġmay": 718,
      "Ġreg": 719,
      "ick": 720,
      "ts": 721,
      "Ġrec": 722,
      "Ġspe": 723,
      "****": 724,
      "low": 725,
      "Ġaw": 726,
      "reat": 727,
      "Ġ7": 728,
      "Ġsy": 729,
      "very": 730,
      "Ġset": 731,
      "Ġ199": 732,
      "Ġpo": 733,
      "ull": 734,
      "(\"": 735,
      "bo": 736,
      "Ġwar": 737,
      "Ġlo": 738,
      "Ċĉ": 739,
      "Ġtime": 740,
      "Ġjo": 741,
      "Ġ8": 742,
      "Ġval": 743,
      "use": 744,
      "Ġact": 745,
      "Ġ|": 746,
      "Ġfil": 747,
      "igh": 748,
      "ps": 749,
      "Ġwould": 750,
      "Ġear": 751,
      "Ġrel": 752,
      "Ġpres": 753,
      "ĊĠĠĠĠĠĠĠĠĠĠĠĠĠĠĠ": 754,
      "Ġwill": 755,
      "Ġcar": 756,
      "ll": 757,
      "Ġed": 758,
      "Ġ9": 759,
      "wn": 760,
      "ys": 761,
      "Ġbet": 762,
      "Ġmo": 763,
      "uring": 764,
      "ton": 765,
      "red": 766,
      "Ġ-": 767,
      "Ġfe": 768,
      "Ġinter": 769,
      "],": 770,
      "Ġoff": 771,
      "Ġeng": 772,
      "):": 773,
      "ne": 774,
      "16": 775,
      "ics": 776,
      "che": 777,
      "ven": 778,
      "import": 779,
      "Ġli": 780,
      "Ġma": 781,
      "Ġatt": 782,
      "ular": 783,
      "Ġ},": 784,
      "olog": 785,
      "itt": 786,
      "Ġop": 787,
      "Ġmost": 788,
      "Ġ//": 789,
      "Ġsuch": 790,
      "Ġany": 791,
      "17": 792,
      "Ġ.": 793,
      "15": 794,
      "tain": 795,
      "unction": 796,
      "ise": 797,
      "Ġplay": 798,
      "par": 799,
      "ined": 800,
      "Ġ()": 801,
      "umber": 802,
      "10": 803,
      "Ġtra": 804,
      "error": 805,
      "Ġmy": 806,
      "ouse": 807,
      "Ġcounty": 808,
      "ual": 809,
      "Ġ`": 810,
      "Ġthan": 811,
      "fore": 812,
      "ople": 813,
      "14": 814,
      "du": 815,
      "path": 816,
      "Ġbr": 817,
      "Ġgro": 818,
      "Ġtrans": 819,
      "Ġonly": 820,
      "ative": 821,
      "ific": 822,
      "Ġmet": 823,
      "but": 824,
      "13": 825,
      "Ġhist": 826,
      "io": 827,
      "Ġsub": 828,
      "gan": 829,
      "Ġchar": 830,
      "Ġbec": 831,
      "Ġz": 832,
      "ient": 833,
      "ms": 834,
      "ood": 835,
      "Ġsch": 836,
      "Ġob": 837,
      "Ġamerican": 838,
      "Ġ<": 839,
      "Ġpop": 840,
      "oth": 841,
      "pos": 842,
      "def": 843,
      "Ġstate": 844,
      "Ġused": 845,
      "Ġthumb": 846,
      "ale": 847,
      "eng": 848,
      "Ġabout": 849,
      "lement": 850,
      "Ġdist": 851,
      "25": 852,
      "enc": 853,
      "\")": 854,
      "000": 855,
      "Ġfl": 856,
      "64": 857,
      "ough": 858,
      "ased": 859,
      "Ġrem": 860,
      "fig": 861,
      "Ġmin": 862,
      "Ġmon": 863,
      "Ġself": 864,
      "type": 865,
      "Ġgr": 866,
      "vid": 867,
      "ury": 868,
      "Ġ198": 869,
      "Ġpubl": 870,
      "Ġdes": 871,
      "Ġstring": 872,
      "Ġ});": 873,
      "Ġcons": 874,
      "ĊĊĠ": 875,
      "20": 876,
      "Ġpeople": 877,
      "Ġhow": 878,
      "ays": 879,
      "ait": 880,
      "Ġduring": 881,
      "Ġ202": 882,
      "Ġgener": 883,
      "Ġvi": 884,
      "inal": 885,
      "Ġwork": 886,
      "Ġrep": 887,
      "ism": 888,
      "tr": 889,
      "ption": 890,
      "irect": 891,
      "Ġcall": 892,
      "Ġworld": 893,
      "75": 894,
      "Ġcity": 895,
      "Ġsm": 896,
      "ession": 897,
      "rough": 898,
      "ident": 899,
      "Ġlar": 900,
      "ep": 901,
      "self": 902,
      "anc": 903,
      "stem": 904,
      "=\"": 905,
      "vern": 906,
      "ob": 907,
      "Ġthese": 908,
      "uth": 909,
      "Ġ$": 910,
      "ween": 911,
      "led": 912,
      "ities": 913,
      "gr": 914,
      "Ġbu": 915,
      "Ġacc": 916,
      "24": 917,
      "rent": 918,
      "79": 919,
      "Ġtest": 920,
      "Ġthen": 921,
      "Ġass": 922,
      "Ġuse": 923,
      "Ġter": 924,
      "....": 925,
      "Ġtype": 926,
      "Ġbetween": 927,
      "ss": 928,
      "ru": 929,
      "ink": 930,
      "Ġthrough": 931,
      "Ġyears": 932,
      "33": 933,
      "ines": 934,
      "ier": 935,
      "Ġcount": 936,
      "65": 937,
      "ange": 938,
      "Ġcre": 939,
      "Ġloc": 940,
      "Ġnor": 941,
      "Ġsaid": 942,
      "78": 943,
      "ma": 944,
      "ished": 945,
      "ivers": 946,
      "Ġnumber": 947,
      "test": 948,
      "export": 949,
      "Ġmany": 950,
      "Ġname": 951,
      "ten": 952,
      "ince": 953,
      "Ġbro": 954,
      "Ġel": 955,
      "Ġfound": 956,
      "ames": 957,
      "ern": 958,
      "round": 959,
      "atch": 960,
      "ool": 961,
      "68": 962,
      "Ġwhile": 963,
      "ious": 964,
      "70": 965,
      "Ġvar": 966,
      "Ġadd": 967,
      "60": 968,
      "ted": 969,
      "28": 970,
      "ger": 971,
      "Ġagain": 972,
      "74": 973,
      "Ġspec": 974,
      "69": 975,
      "ife": 976,
      "Ġgovern": 977,
      "Ġwhere": 978,
      "ily": 979,
      "Ġfol": 980,
      "Ġke": 981,
      "35": 982,
      "Ġest": 983,
      "ize": 984,
      "ork": 985,
      "fl": 986,
      "ond": 987,
      "Ġhouse": 988,
      "Ġstates": 989,
      "Ġclass": 990,
      "Ġhigh": 991,
      "air": 992,
      "ense": 993,
      "Ġint": 994,
      "ins": 995,
      "ync": 996,
      "Ġget": 997,
      "ages": 998,
      "Ġent": 999,
      "Ġresult": 1000,
      "({": 1001,
      "ures": 1002,
      "ery": 1003,
      "cur": 1004,
      "Ġext": 1005,
      "ons": 1006,
      "ating": 1007,
      "\".": 1008,
      "Ġcap": 1009,
      "Ġwrit": 1010,
      "30": 1011,
      "Ġpos": 1012,
      "Ġend": 1013,
      "29": 1014,
      "its": 1015,
      "amp": 1016,
      "Ġmed": 1017,
      "Ġrequ": 1018,
      "Ġmem": 1019,
      "other": 1020,
      "Ġ&": 1021,
      "Ġinst": 1022,
      "34": 1023,
      "Ġ10": 1024,
      "39": 1025,
      "ann": 1026,
      "att": 1027,
      "ric": 1028,
      "co": 1029,
      "Ġ)": 1030,
      "Ġsur": 1031,
      "Ġsystem": 1032,
      "col": 1033,
      "by": 1034,
      "Ġsee": 1035,
      "ists": 1036,
      "als": 1037,
      "outh": 1038,
      "Ġbel": 1039,
      "Ġ_": 1040,
      "Ġair": 1041,
      "ather": 1042,
      "const": 1043,
      "Ġgu": 1044,
      "38": 1045,
      "Ġmade": 1046,
      "ral": 1047,
      "Ġu": 1048,
      "Ġ15": 1049,
      "raph": 1050,
      "Ġking": 1051,
      "Ġunited": 1052,
      "pend": 1053,
      "ah": 1054,
      "ower": 1055,
      "();": 1056,
      "Ġbefore": 1057,
      "az": 1058,
      "cond": 1059,
      "Ġhand": 1060,
      "Ġpers": 1061,
      "Ġart": 1062,
      "Ġdif": 1063,
      "lish": 1064,
      "ution": 1065,
      "ward": 1066,
      "Ġmus": 1067,
      "ized": 1068,
      "Ġmod": 1069,
      "set": 1070,
      "';": 1071,
      "Ġunivers": 1072,
      "key": 1073,
      "Ġri": 1074,
      "ash": 1075,
      "Ġimport": 1076,
      "Ġtrue": 1077,
      "arch": 1078,
      "pre": 1079,
      "ature": 1080,
      "Ġgroup": 1081,
      "ful": 1082,
      "ank": 1083,
      "hn": 1084,
      "ters": 1085,
      "Ġsign": 1086,
      "ause": 1087,
      "Ġfollow": 1088,
      "model": 1089,
      "ulation": 1090,
      "alse": 1091,
      ",\"": 1092,
      "Ġback": 1093,
      "Ġexp": 1094,
      "Ġlong": 1095,
      "ribut": 1096,
      "Ġcur": 1097,
      "Ġnational": 1098,
      "Ġger": 1099,
      "ible": 1100,
      "Ã©": 1101,
      "ark": 1102,
      "min": 1103,
      "Ġcould": 1104,
      "Ġwell": 1105,
      "Ġold": 1106,
      "duc": 1107,
      "fil": 1108,
      "ask": 1109,
      "Ġche": 1110,
      "50": 1111,
      "cent": 1112,
      "Ġthree": 1113,
      "ĠĠĠĠĠĠĠ": 1114,
      "Ġfunction": 1115,
      "url": 1116,
      "value": 1117,
      "ural": 1118,
      "Ġsim": 1119,
      "view": 1120,
      "----": 1121,
      "Ġ/": 1122,
      "ute": 1123,
      "Ġsk": 1124,
      "ffect": 1125,
      "velop": 1126,
      "ont": 1127,
      "cept": 1128,
      "Ġfam": 1129,
      "Ġstud": 1130,
      "ision": 1131,
      "sp": 1132,
      "ams": 1133,
      "mber": 1134,
      "li": 1135,
      "app": 1136,
      "Ġgre": 1137,
      "ired": 1138,
      "Ġown": 1139,
      "my": 1140,
      "Ġbeing": 1141,
      "ract": 1142,
      "Ġge": 1143,
      "Ġstand": 1144,
      "');": 1145,
      "Ġla": 1146,
      "32": 1147,
      "44": 1148,
      "Ġboth": 1149,
      "Ġdirect": 1150,
      "ner": 1151,
      "ning": 1152,
      "read": 1153,
      "ĊĠĠĠĠĠĠĠĠĠĠĠĠĠĠĠĠĠĠĠĠ": 1154,
      "ues": 1155,
      "Ġschool": 1156,
      "qual": 1157,
      "Ġwhat": 1158,
      "data": 1159,
      "'t": 1160,
      "Ġwom": 1161,
      "config": 1162,
      "Ġserv": 1163,
      "Ġ#": 1164,
      "Ġrun": 1165,
      "uro": 1166,
      "Ġsoc": 1167,
      "ount": 1168,
      "requ": 1169,
      "Ġinv": 1170,
      "Ġsw": 1171,
      "Ġdown": 1172,
      "Ġlater": 1173,
      "Ġfilm": 1174,
      "Ġorig": 1175,
      "ctions": 1176,
      "Ġchild": 1177,
      "Ġdevelop": 1178,
      "opt": 1179,
      "Ġpri": 1180,
      "200": 1181,
      "imes": 1182,
      "angu": 1183,
      "Ġread": 1184,
      "Ġrefer": 1185,
      "of": 1186,
      "Ġx": 1187,
      "Ġdescri": 1188,
      "ault": 1189,
      "ator": 1190,
      "ource": 1191,
      "ared": 1192,
      "99": 1193,
      "Ġsing": 1194,
      "Ġland": 1195,
      "********": 1196,
      "Ġpass": 1197,
      "Ġoper": 1198,
      "Ġ})": 1199,
      "Ġdid": 1200,
      "Ġprom": 1201,
      "met": 1202,
      "ments": 1203,
      "Ċĉĉĉĉ": 1204,
      "not": 1205,
      "ason": 1206,
      "ret": 1207,
      "Ġknown": 1208,
      "Ġlist": 1209,
      "Ġsl": 1210,
      "Ġcr": 1211,
      "ĊĊĠĠĠĠĠĠĠ": 1212,
      "Ġage": 1213,
      "me": 1214,
      "Ġnow": 1215,
      "ars": 1216,
      "atic": 1217,
      "48": 1218,
      "ray": 1219,
      "40": 1220,
      "Ġmain": 1221,
      "Ġfield": 1222,
      "Ġnorth": 1223,
      "Ġshow": 1224,
      "file": 1225,
      "ences": 1226,
      "let": 1227,
      "uss": 1228,
      "hen": 1229,
      "Ġgreat": 1230,
      "62": 1231,
      "Ġsouth": 1232,
      "text": 1233,
      "Ġrom": 1234,
      "ility": 1235,
      "Ġhead": 1236,
      "ever": 1237,
      "Ġjohn": 1238,
      "Ġ20": 1239,
      "Ġmodel": 1240,
      "Ġuniversity": 1241,
      "Ġcor": 1242,
      "Ġpolit": 1243,
      "ai": 1244,
      "77": 1245,
      "ered": 1246,
      "ium": 1247,
      "Ġlaw": 1248,
      "ule": 1249,
      "Ġsecond": 1250,
      "Ġdem": 1251,
      "ived": 1252,
      "...": 1253,
      "Ġintern": 1254,
      "Ġlike": 1255,
      "Ġdec": 1256,
      "Ġ@": 1257,
      "comm": 1258,
      "Ġawait": 1259,
      "Ċĉĉĉ": 1260,
      "45": 1261,
      "Ġday": 1262,
      "Ġgerman": 1263,
      "ache": 1264,
      "iet": 1265,
      "essage": 1266,
      "ec": 1267,
      "Ġtem": 1268,
      "ert": 1269,
      "Ġhistory": 1270,
      "ponse": 1271,
      "Ġsince": 1272,
      "Ġ+": 1273,
      "Ġchr": 1274,
      "Ġrecord": 1275,
      "Ġsever": 1276,
      "Ġlet": 1277,
      "ody": 1278,
      "Ġbrit": 1279,
      "Ġ16": 1280,
      "Ġincluding": 1281,
      "Ġmil": 1282,
      "Ġearly": 1283,
      "Ġevent": 1284,
      "tobe": 1285,
      "ble": 1286,
      "ology": 1287,
      "Ġright": 1288,
      "\"\"": 1289,
      "Ġcour": 1290,
      "Ġdr": 1291,
      "enn": 1292,
      "Ġlead": 1293,
      "Ġprodu": 1294,
      "Ġshould": 1295,
      "eter": 1296,
      "po": 1297,
      "px": 1298,
      "ually": 1299,
      "ats": 1300,
      "ength": 1301,
      "line": 1302,
      "Ġcal": 1303,
      "Ġcalled": 1304,
      "ves": 1305,
      "Ġpublic": 1306,
      "state": 1307,
      "Ġ12": 1308,
      "72": 1309,
      "Ġ,": 1310,
      "Ġelect": 1311,
      "Ġopen": 1312,
      "Ġ:": 1313,
      "ically": 1314,
      "ley": 1315,
      "Ġcommun": 1316,
      "Ġ===": 1317,
      "br": 1318,
      "Ġpopulation": 1319,
      "Ġcontin": 1320,
      "Ġlife": 1321,
      "Ġhowever": 1322,
      "ax": 1323,
      "Ġarea": 1324,
      "Ġfin": 1325,
      "ister": 1326,
      "Ġdiffer": 1327,
      "ization": 1328,
      "Ġgovernment": 1329,
      "string": 1330,
      "Ġbook": 1331,
      "ives": 1332,
      "Ġoc": 1333,
      "Ġsame": 1334,
      "49": 1335,
      "Ġhar": 1336,
      "Ġbar": 1337,
      "ales": 1338,
      "Ġeach": 1339,
      "âĢĶ": 1340,
      "11": 1341,
      "Ġleg": 1342,
      "Ġir": 1343,
      "55": 1344,
      "rop": 1345,
      "Ġbecame": 1346,
      "version": 1347,
      "Ġevery": 1348,
      "Ġcentury": 1349,
      "ices": 1350,
      "ane": 1351,
      "dir": 1352,
      "Ġref": 1353,
      "Ġport": 1354,
      "Ġdi": 1355,
      "Ġpa": 1356,
      "ants": 1357,
      "rol": 1358,
      "={": 1359,
      "Ġnone": 1360,
      "Ġagainst": 1361,
      "66": 1362,
      "Ġappe": 1363,
      "ograph": 1364,
      "Ġtri": 1365,
      "Ġsmall": 1366,
      "ina": 1367,
      "Ġnear": 1368,
      "Ġvalue": 1369,
      "Ġlangu": 1370,
      "')": 1371,
      "Ġmat": 1372,
      "mb": 1373,
      "ced": 1374,
      "for": 1375,
      "Ġeuro": 1376,
      "Ġfour": 1377,
      "ĊĠĠĠĠĠĠĠĠĠĠĠĠĠ": 1378,
      "bed": 1379,
      "Ġvery": 1380,
      "gest": 1381,
      "Ġexam": 1382,
      "hing": 1383,
      "icense": 1384,
      "part": 1385,
      "ians": 1386,
      "Ġfalse": 1387,
      "fo": 1388,
      "Ġwhite": 1389,
      "ĊĊĠĠĠĠĠ": 1390,
      "Ġeven": 1391,
      "Ġca": 1392,
      "Ġtext": 1393,
      "Ġbecause": 1394,
      "aking": 1395,
      "Ġisland": 1396,
      "Ġmaj": 1397,
      "ross": 1398,
      "Ġann": 1399,
      "====": 1400,
      "Ġmen": 1401,
      "way": 1402,
      "ries": 1403,
      "med": 1404,
      "Ġperson": 1405,
      "Ġenglish": 1406,
      "gs": 1407,
      "Ġren": 1408,
      "ting": 1409,
      "88": 1410,
      "ped": 1411,
      "omet": 1412,
      "iving": 1413,
      "erg": 1414,
      "any": 1415,
      "Ġlast": 1416,
      "come": 1417,
      "199": 1418,
      "Ġmark": 1419,
      "atus": 1420,
      "une": 1421,
      "alk": 1422,
      "oy": 1423,
      "ĊĠĠĠĠĠĠĠĠĠĠĠĠĠĠĠĠĠĠĠ": 1424,
      "Ġmill": 1425,
      "76": 1426,
      "Ġsuc": 1427,
      "Ġline": 1428,
      "Ġii": 1429,
      "Ġseveral": 1430,
      "por": 1431,
      "til": 1432,
      "22": 1433,
      "Ġstre": 1434,
      "Ġhum": 1435,
      "pr": 1436,
      "Ġdata": 1437,
      "Ġpoint": 1438,
      "ially": 1439,
      "itle": 1440,
      "ene": 1441,
      "ness": 1442,
      "yle": 1443,
      "time": 1444,
      "Ġjust": 1445,
      "field": 1446,
      "ases": 1447,
      "Ġwater": 1448,
      "que": 1449,
      "ember": 1450,
      "Ġblack": 1451,
      "ital": 1452,
      "hip": 1453,
      "Ġsupport": 1454,
      "Ġthose": 1455,
      "Ġgl": 1456,
      "rench": 1457,
      "Ġprocess": 1458,
      "icon": 1459,
      "ised": 1460,
      "Ġpat": 1461,
      "Ġsu": 1462,
      "Ġauth": 1463,
      "Ġfo": 1464,
      "content": 1465,
      "lex": 1466,
      "Ġlarge": 1467,
      "load": 1468,
      "from": 1469,
      "36": 1470,
      "Ġnull": 1471,
      "af": 1472,
      "Ġeurope": 1473,
      "59": 1474,
      "item": 1475,
      "Ġmajor": 1476,
      "Ġbus": 1477,
      "80": 1478,
      "compon": 1479,
      "back": 1480,
      "Ġlab": 1481,
      "Ġorgan": 1482,
      "Ġstart": 1483,
      "Ġgeneral": 1484,
      "mod": 1485,
      "ought": 1486,
      "idd": 1487,
      "Ġbuild": 1488,
      "bl": 1489,
      "Ġdeath": 1490,
      "Ġ17": 1491,
      "class": 1492,
      "Ġpress": 1493,
      "ission": 1494,
      "Ġlook": 1495,
      "Ġchrist": 1496,
      "ets": 1497,
      "Ġeffect": 1498,
      "ball": 1499,
      "input": 1500,
      "Ġhistor": 1501,
      "urch": 1502,
      "Ġcharact": 1503,
      "Ġ14": 1504,
      "Ġpath": 1505,
      "au": 1506,
      "Ġuntil": 1507,
      "Ġ?": 1508,
      "Ġestab": 1509,
      "Ġhel": 1510,
      "day": 1511,
      "89": 1512,
      "side": 1513,
      "Ġphil": 1514,
      "Ġgod": 1515,
      "uct": 1516,
      "Ġcommon": 1517,
      "Ġpower": 1518,
      "gin": 1519,
      "ica": 1520,
      "cle": 1521,
      "Ġnon": 1522,
      "ittle": 1523,
      "Ġvol": 1524,
      "result": 1525,
      "wh": 1526,
      "Ġfore": 1527,
      "Ġid": 1528,
      "ument": 1529,
      "Ġnever": 1530,
      "Ġupon": 1531,
      "Ġmake": 1532,
      "conom": 1533,
      "with": 1534,
      "Ġtown": 1535,
      "Ġmuch": 1536,
      "ird": 1537,
      "Ġprovid": 1538,
      "ov": 1539,
      "Ġdel": 1540,
      "gen": 1541,
      "ik": 1542,
      "hold": 1543,
      "Ġwest": 1544,
      "ĊĊ": 1545,
      "head": 1546,
      "plic": 1547,
      "born": 1548,
      "37": 1549,
      "Ġseries": 1550,
      "ius": 1551,
      "ried": 1552,
      "Ġele": 1553,
      "els": 1554,
      "?:": 1555,
      "Ġanother": 1556,
      "hod": 1557,
      "Ġdesign": 1558,
      "))": 1559,
      "Ġknow": 1560,
      "session": 1561,
      "Ġnext": 1562,
      "Ġbre": 1563,
      "Ġred": 1564,
      "ove": 1565,
      "Ġfrench": 1566,
      "Ġway": 1567,
      "Ġmusic": 1568,
      "Ġjul": 1569,
      "Ġplace": 1570,
      "Ġlittle": 1571,
      "Ġste": 1572,
      "ified": 1573,
      "Ġpartic": 1574,
      "cy": 1575,
      "umn": 1576,
      "Ġfile": 1577,
      "Ġmust": 1578,
      "bert": 1579,
      "amed": 1580,
      "Ġwithout": 1581,
      "Ġlat": 1582,
      "ae": 1583,
      "201": 1584,
      "ards": 1585,
      "hern": 1586,
      "Ġdiv": 1587,
      "Ġoffic": 1588,
      "ott": 1589,
      "Ġremain": 1590,
      "Ġmag": 1591,
      "ole": 1592,
      "Ġorder": 1593,
      "ience": 1594,
      "Ġaccord": 1595,
      "Ġeconom": 1596,
      "itions": 1597,
      "iod": 1598,
      "Ġword": 1599,
      "Ġyour": 1600,
      "dom": 1601,
      "add": 1602,
      "iven": 1603,
      "bers": 1604,
      "duced": 1605,
      "ler": 1606,
      "api": 1607,
      "Ġoften": 1608,
      "defined": 1609,
      "Ġaust": 1610,
      "Ġvis": 1611,
      "Ġpresent": 1612,
      "../": 1613,
      "sk": 1614,
      "ued": 1615,
      "Ġaround": 1616,
      "Ġrele": 1617,
      "Ġav": 1618,
      "tt": 1619,
      "ron": 1620,
      "Ġhome": 1621,
      "Ġconsid": 1622,
      "Ġcolle": 1623,
      "Ġcle": 1624,
      "reg": 1625,
      "58": 1626,
      "Ġamong": 1627,
      "Ġelement": 1628,
      "Ġpresident": 1629,
      "Ġbritish": 1630,
      "Ġrad": 1631,
      "resent": 1632,
      "Ġtop": 1633,
      "vol": 1634,
      "inc": 1635,
      "Ġgood": 1636,
      "Ġfar": 1637,
      "Ġ);": 1638,
      "urg": 1639,
      "Ġjan": 1640,
      "........": 1641,
      "Ġdifferent": 1642,
      "Ġincre": 1643,
      "Ġallow": 1644,
      "sy": 1645,
      "Ġsol": 1646,
      "Ġstill": 1647,
      "call": 1648,
      "tool": 1649,
      "Ġappro": 1650,
      "return": 1651,
      "Ġarch": 1652,
      "comp": 1653,
      "mer": 1654,
      "Ġang": 1655,
      "Ġperform": 1656,
      "oid": 1657,
      "`,": 1658,
      "Ġfollowing": 1659,
      "Ġyork": 1660,
      "},": 1661,
      "Ġcult": 1662,
      "raw": 1663,
      "Ġrece": 1664,
      "uary": 1665,
      "Ġhy": 1666,
      "Ġtele": 1667,
      "Ġpark": 1668,
      "67": 1669,
      "rie": 1670,
      "component": 1671,
      "ify": 1672,
      "Ġant": 1673,
      "fix": 1674,
      "Ġwithin": 1675,
      "Ġasync": 1676,
      "Ġleft": 1677,
      "inter": 1678,
      "Ġyoun": 1679,
      "Ġ*/": 1680,
      "];": 1681,
      "less": 1682,
      "this": 1683,
      "serv": 1684,
      "Ġview": 1685,
      "Ġaccording": 1686,
      "Ġturn": 1687,
      "Ġaug": 1688,
      "ively": 1689,
      "Ġinternational": 1690,
      "aim": 1691,
      "used": 1692,
      "Ġsuccess": 1693,
      "Ġkey": 1694,
      "mp": 1695,
      "Ġfamily": 1696,
      "kn": 1697,
      "Ġcountry": 1698,
      "ison": 1699,
      "tal": 1700,
      "ional": 1701,
      "Ġtrad": 1702,
      "Ġchildren": 1703,
      "Ġcame": 1704,
      "mock": 1705,
      "go": 1706,
      "ush": 1707,
      "Ġ11": 1708,
      "Ġlim": 1709,
      "function": 1710,
      "__": 1711,
      "Ġ25": 1712,
      "sert": 1713,
      "iter": 1714,
      "Ġcontain": 1715,
      "log": 1716,
      "ken": 1717,
      "fe": 1718,
      "Ġ100": 1719,
      "Ġ13": 1720,
      "fr": 1721,
      "Ġbase": 1722,
      "context": 1723,
      ".,": 1724,
      "Ġalong": 1725,
      "Ġerror": 1726,
      "09": 1727,
      "Ġbas": 1728,
      "chn": 1729,
      "Ġcommand": 1730,
      "Ġlocal": 1731,
      "Ġoct": 1732,
      "aving": 1733,
      "ope": 1734,
      "42": 1735,
      "empt": 1736,
      "Ġauthor": 1737,
      "Ġ||": 1738,
      "Ġriver": 1739,
      "Ġparty": 1740,
      "Ġdon": 1741,
      "bs": 1742,
      "?\"": 1743,
      "list": 1744,
      "box": 1745,
      "Ġ!": 1746,
      "though": 1747,
      "ony": 1748,
      "Ġprov": 1749,
      "itary": 1750,
      "Ġmarch": 1751,
      "ches": 1752,
      "jo": 1753,
      "rap": 1754,
      "roll": 1755,
      "Ġbegan": 1756,
      "length": 1757,
      "dis": 1758,
      "Ġhol": 1759,
      "Ġlog": 1760,
      "play": 1761,
      "Ġver": 1762,
      "Ġperiod": 1763,
      "point": 1764,
      "ril": 1765,
      "Ġprogr": 1766,
      "Ġlight": 1767,
      "Ġpost": 1768,
      "Ġwid": 1769,
      "Ġrest": 1770,
      "Ġcop": 1771,
      "date": 1772,
      "index": 1773,
      "Ġdom": 1774,
      "ement": 1775,
      "Ġinclude": 1776,
      "Ġadv": 1777,
      "Ġreport": 1778,
      "${": 1779,
      "73": 1780,
      "Ġeast": 1781,
      "board": 1782,
      "Ġobject": 1783,
      "ling": 1784,
      "Ġ&&": 1785,
      "div": 1786,
      "Ġlicense": 1787,
      "Ġchang": 1788,
      "itional": 1789,
      "Ġaugust": 1790,
      "Ġusing": 1791,
      "Ġ24": 1792,
      "ither": 1793,
      "writ": 1794,
      "ager": 1795,
      "Ġchurch": 1796,
      "ture": 1797,
      "63": 1798,
      "Ġlanguage": 1799,
      "ze": 1800,
      "?.": 1801,
      "Ġopt": 1802,
      "ently": 1803,
      "Ġdet": 1804,
      "Ġtyp": 1805,
      "node": 1806,
      "Ġshort": 1807,
      "Ġlin": 1808,
      "Ġaut": 1809,
      "âĶ": 1810,
      "Ġnet": 1811,
      "alt": 1812,
      "Ġfur": 1813,
      "Ġfem": 1814,
      "ober": 1815,
      "Ġexample": 1816,
      "Ġgame": 1817,
      "uck": 1818,
      "oci": 1819,
      "itor": 1820,
      "Ġcurrent": 1821,
      "Ġposs": 1822,
      "ended": 1823,
      "object": 1824,
      "Ġmer": 1825,
      "aut": 1826,
      "Ġwind": 1827,
      "Ġmult": 1828,
      "pa": 1829,
      "Ġfact": 1830,
      "should": 1831,
      "Ġarg": 1832,
      "Ġrepresent": 1833,
      "ensus": 1834,
      "Ġer": 1835,
      "Ġdece": 1836,
      "Ġsomet": 1837,
      "Ġreal": 1838,
      "ught": 1839,
      "Ġbatt": 1840,
      "ways": 1841,
      "ese": 1842,
      "rown": 1843,
      "Ġinde": 1844,
      "ency": 1845,
      "ung": 1846,
      "gress": 1847,
      "Ġinfl": 1848,
      "ring": 1849,
      "ptember": 1850,
      "ately": 1851,
      "Ġelse": 1852,
      "Ġbased": 1853,
      "vil": 1854,
      "ration": 1855,
      "pec": 1856,
      "order": 1857,
      "iety": 1858,
      "[\"": 1859,
      "Ġbest": 1860,
      "Ġsum": 1861,
      "Ġexpl": 1862,
      "options": 1863,
      "dat": 1864,
      "ript": 1865,
      "Ġmodern": 1866,
      "Ġjanuary": 1867,
      "Ġtechn": 1868,
      "ondon": 1869,
      "85": 1870,
      "amer": 1871,
      "Ġtotal": 1872,
      "over": 1873,
      "Ġroman": 1874,
      "Ġrequest": 1875,
      "Ġmiss": 1876,
      "element": 1877,
      "Ġversion": 1878,
      "user": 1879,
      "Ġalthough": 1880,
      "arget": 1881,
      "Ġhal": 1882,
      "work": 1883,
      "Ġgra": 1884,
      "equal": 1885,
      "Ġconf": 1886,
      "hes": 1887,
      "Ġgiven": 1888,
      "Ġjune": 1889,
      "Ġexper": 1890,
      "message": 1891,
      "Ġinit": 1892,
      "Ġsn": 1893,
      "Ġson": 1894,
      "var": 1895,
      "05": 1896,
      "Ġwoman": 1897,
      "Ġjuly": 1898,
      "Ġcamp": 1899,
      "Ġdue": 1900,
      "aced": 1901,
      "ilt": 1902,
      "</": 1903,
      "rict": 1904,
      "Ġrepubl": 1905,
      "Ġhold": 1906,
      "Ġbelie": 1907,
      "Ġequ": 1908,
      "akes": 1909,
      "Ġoctober": 1910,
      "request": 1911,
      "04": 1912,
      "ving": 1913,
      "Ġproject": 1914,
      "Ġcrit": 1915,
      "Ġpp": 1916,
      "json": 1917,
      "alth": 1918,
      "aces": 1919,
      "ertain": 1920,
      "event": 1921,
      "oph": 1922,
      "Ġassoci": 1923,
      "Ġnat": 1924,
      "Ġep": 1925,
      "Ġmembers": 1926,
      "Ġsource": 1927,
      "Ġtimes": 1928,
      "ude": 1929,
      "Ġital": 1930,
      "lin": 1931,
      "iam": 1932,
      "aster": 1933,
      "query": 1934,
      "Ġfoot": 1935,
      "Ġseptember": 1936,
      "Ġmillion": 1937,
      "Ġcharacter": 1938,
      "Ġes": 1939,
      "Ġcontrol": 1940,
      "wor": 1941,
      "://": 1942,
      "face": 1943,
      "Ġyoung": 1944,
      "ship": 1945,
      "ched": 1946,
      "Ġcreate": 1947,
      "idge": 1948,
      "Ġcat": 1949,
      "press": 1950,
      "valid": 1951,
      "Ġsuper": 1952,
      "Ġsay": 1953,
      "search": 1954,
      "Ġundefined": 1955,
      "Ġcase": 1956,
      "Ġcensus": 1957,
      "ior": 1958,
      "true": 1959,
      "Ġhuman": 1960,
      "Ġdecl": 1961,
      "ote": 1962,
      "26": 1963,
      "\"]": 1964,
      "ternal": 1965,
      "Ġneed": 1966,
      "ories": 1967,
      "âĶĢ": 1968,
      "Ġhen": 1969,
      "Ġassert": 1970,
      "Ġresponse": 1971,
      "Ġapril": 1972,
      "ook": 1973,
      "Ġour": 1974,
      "Ġside": 1975,
      "Ġlondon": 1976,
      "Ġsingle": 1977,
      "Ġmilitary": 1978,
      "ament": 1979,
      "Ġproper": 1980,
      "Ġalb": 1981,
      "iness": 1982,
      "men": 1983,
      "select": 1984,
      "Ġdistrict": 1985,
      "ĊĠĠ": 1986,
      "ham": 1987,
      "run": 1988,
      "Ġdecember": 1989,
      "Ġtook": 1990,
      "Ġgeor": 1991,
      "Ġsat": 1992,
      "Ġcond": 1993,
      "Ġpal": 1994,
      "apan": 1995,
      "lob": 1996,
      "Ġruss": 1997,
      "Ġhousehold": 1998,
      "ones": 1999,
      "Ġ\"\"\"": 2000,
      "Ġmove": 2001,
      "map": 2002,
      "Ġformer": 2003,
      "itting": 2004,
      "na": 2005,
      "27": 2006,
      "Ġwon": 2007,
      "Ġcourt": 2008,
      "Ġtre": 2009,
      "Ġconfig": 2010,
      "Ġservice": 2011,
      "Ġve": 2012,
      "Ġfre": 2013,
      "bu": 2014,
      "ino": 2015,
      "Ġmock": 2016,
      "Ġnove": 2017,
      "Ġtool": 2018,
      "Ġfather": 2019,
      "Ġpolitical": 2020,
      "ination": 2021,
      "Ġeas": 2022,
      "23": 2023,
      "raft": 2024,
      "54": 2025,
      "lab": 2026,
      "Ġwomen": 2027,
      "Ġ30": 2028,
      "no": 2029,
      "ml": 2030,
      "Ġnovember": 2031,
      "Ġmot": 2032,
      "Ġliving": 2033,
      "lished": 2034,
      "Ġforce": 2035,
      "Ġoriginal": 2036,
      "Ġled": 2037,
      "Ġmr": 2038,
      "Ġcompany": 2039,
      "Ġthough": 2040,
      "Ġarmy": 2041,
      "place": 2042,
      "Ġsett": 2043,
      "Ġcy": 2044,
      "--------": 2045,
      "Ġbeh": 2046,
      "Ġinc": 2047,
      "param": 2048,
      "code": 2049,
      "ref": 2050,
      "ape": 2051,
      "ctor": 2052,
      "Ġtable": 2053,
      "Ġtake": 2054,
      "Ġinform": 2055,
      "Ġmor": 2056,
      "Ġcontent": 2057,
      "Ġfurther": 2058,
      "Ġ...": 2059,
      "estern": 2060,
      "known": 2061,
      "ng": 2062,
      "Ġshall": 2063,
      "Ġanim": 2064,
      "bru": 2065,
      "ides": 2066,
      "Ġless": 2067,
      "Ġbi": 2068,
      "off": 2069,
      "Ġhimself": 2070,
      "21": 2071,
      "Ġpur": 2072,
      "Ġfail": 2073,
      "Ġdoes": 2074,
      "Ġsil": 2075,
      "ored": 2076,
      "Ġstreet": 2077,
      "ford": 2078,
      "ends": 2079,
      "Ġcomput": 2080,
      "inst": 2081,
      "lete": 2082,
      "Ġmethod": 2083,
      "Ġexpress": 2084,
      "action": 2085,
      "Ġbody": 2086,
      "Ġdat": 2087,
      "Ġocc": 2088,
      "Ġciv": 2089,
      "Ġthought": 2090,
      "âĶĢâĶĢ": 2091,
      "Ġtro": 2092,
      "Ġiss": 2093,
      "Ġcome": 2094,
      "Ġdoc": 2095,
      "Ġfew": 2096,
      "ustom": 2097,
      "Ġexist": 2098,
      "eth": 2099,
      "Ġroad": 2100,
      "Ġdisc": 2101,
      "Ġcir": 2102,
      "ster": 2103,
      "Ġpriv": 2104,
      "Ġworks": 2105,
      "posed": 2106,
      "mar": 2107,
      "Ġdefault": 2108,
      "08": 2109,
      "bruary": 2110,
      "Ġfall": 2111,
      "provid": 2112,
      "Ġsession": 2113,
      "hol": 2114,
      "Ġsocial": 2115,
      "cil": 2116,
      "most": 2117,
      "Ġcompos": 2118,
      "Ġprogram": 2119,
      "Ġjapan": 2120,
      "31": 2121,
      "eder": 2122,
      "Ġrelations": 2123,
      "Ġicon": 2124,
      "loc": 2125,
      "Ġcare": 2126,
      "ots": 2127,
      "Ġpain": 2128,
      "ald": 2129,
      "Ġrelig": 2130,
      "Ġprim": 2131,
      "ids": 2132,
      "Ġwent": 2133,
      "Ġgree": 2134,
      "iction": 2135,
      "Ġunion": 2136,
      "Ġinflu": 2137,
      "ilar": 2138,
      "':": 2139,
      "vision": 2140,
      "Ġterm": 2141,
      "});": 2142,
      "Ġprof": 2143,
      "Ġheld": 2144,
      "Ġfri": 2145,
      "Ġestablished": 2146,
      "Ġfind": 2147,
      "ography": 2148,
      "Ġgir": 2149,
      "Ġselect": 2150,
      "****************": 2151,
      "47": 2152,
      "ground": 2153,
      "Ġbra": 2154,
      "56": 2155,
      "Ġkill": 2156,
      "bar": 2157,
      "Ġeduc": 2158,
      "Ġdev": 2159,
      "Ġmass": 2160,
      "Ġlate": 2161,
      "Ġmax": 2162,
      "Ġdevelopment": 2163,
      "Ġ2010": 2164,
      "Ġident": 2165,
      "ites": 2166,
      "Ġband": 2167,
      "Ġide": 2168,
      "ague": 2169,
      "ples": 2170,
      "Ġindust": 2171,
      "Ġteam": 2172,
      "Ġlay": 2173,
      "Ġwin": 2174,
      "sl": 2175,
      "Ġcentral": 2176,
      "Ġorigin": 2177,
      "war": 2178,
      "start": 2179,
      "Ġreferences": 2180,
      "Ġnort": 2181,
      "Ġfebruary": 2182,
      "Ġvir": 2183,
      "ources": 2184,
      "Ġfull": 2185,
      "hem": 2186,
      "hel": 2187,
      "Ġhost": 2188,
      "Ġtitle": 2189,
      "Ġaustral": 2190,
      "Ġnav": 2191,
      "Ġhig": 2192,
      "gether": 2193,
      "ths": 2194,
      "((": 2195,
      "Ġdav": 2196,
      "oss": 2197,
      "Ġconstru": 2198,
      "Ġfire": 2199,
      "Ġsix": 2200,
      "Ġcivil": 2201,
      "Ġey": 2202,
      "plate": 2203,
      "Ġlow": 2204,
      "aged": 2205,
      "Ġenv": 2206,
      "Ġcanad": 2207,
      "ek": 2208,
      "Ġpopular": 2209,
      "Ġmean": 2210,
      "Ġapp": 2211,
      "71": 2212,
      "ged": 2213,
      "ached": 2214,
      "Ġstar": 2215,
      "Ġcast": 2216,
      "Ġgold": 2217,
      "ances": 2218,
      "ware": 2219,
      "Ġmight": 2220,
      "yal": 2221,
      "Ã¡": 2222,
      "Ġfive": 2223,
      "Ġexec": 2224,
      "Ġbill": 2225,
      "Ġpublished": 2226,
      "Ġphys": 2227,
      "Ġlord": 2228,
      "Ġsout": 2229,
      "Ġjud": 2230,
      "ama": 2231,
      "46": 2232,
      "ological": 2233,
      "Ġsimilar": 2234,
      "Ġgreen": 2235,
      "Ġsan": 2236,
      "ivid": 2237,
      "acy": 2238,
      "auth": 2239,
      "Ġhor": 2240,
      "Ġindepend": 2241,
      "Ġspace": 2242,
      "prom": 2243,
      "Ġsong": 2244,
      "(),": 2245,
      "ided": 2246,
      "Ġplayer": 2247,
      "command": 2248,
      "Ġintro": 2249,
      "Ġbattle": 2250,
      "Ġprot": 2251,
      "Ġput": 2252,
      "Ġhere": 2253,
      "Ġlib": 2254,
      "Ġnight": 2255,
      "Ġ};": 2256,
      "mon": 2257,
      "ification": 2258,
      "Ġnamed": 2259,
      "Ġrate": 2260,
      "Ġfront": 2261,
      "here": 2262,
      "vered": 2263,
      "Ġnorm": 2264,
      "js": 2265,
      "\";": 2266,
      "vious": 2267,
      "Ġdistribut": 2268,
      "Ġlevel": 2269,
      "Ġur": 2270,
      "nect": 2271,
      "Ġ</": 2272,
      "Ġmc": 2273,
      "202": 2274,
      "Ġagre": 2275,
      "aken": 2276,
      "hema": 2277,
      "Ġden": 2278,
      "Ġaccess": 2279,
      "anch": 2280,
      "Éµ": 2281,
      "Ġgrow": 2282,
      "Ġ21": 2283,
      "ured": 2284,
      "ules": 2285,
      "props": 2286,
      "Ġearth": 2287,
      "Ġ==": 2288,
      "Ġsug": 2289,
      "iddle": 2290,
      "reen": 2291,
      "filter": 2292,
      "aps": 2293,
      "Ġconc": 2294,
      "Ġsent": 2295,
      "Ġfrance": 2296,
      "Ġonce": 2297,
      "Ġoption": 2298,
      "Ġwood": 2299,
      "Ġrock": 2300,
      "Ġtreat": 2301,
      "Ġrole": 2302,
      "Ġill": 2303,
      "toequal": 2304,
      "Ġ2000": 2305,
      "Ġanc": 2306,
      "verage": 2307,
      "Ġbir": 2308,
      "atures": 2309,
      "ival": 2310,
      "new": 2311,
      "Ġclaim": 2312,
      "Ġ2020": 2313,
      "(`": 2314,
      "imate": 2315,
      "Ġcomb": 2316,
      "Ġregion": 2317,
      "response": 2318,
      "ploy": 2319,
      "98": 2320,
      "Ġhaving": 2321,
      "count": 2322,
      "sw": 2323,
      "htt": 2324,
      "Ġvarious": 2325,
      "Ġclos": 2326,
      "fact": 2327,
      "Ġrich": 2328,
      "Ġparticular": 2329,
      "client": 2330,
      "Ġdri": 2331,
      "61": 2332,
      "Ġhard": 2333,
      "Ġdest": 2334,
      "90": 2335,
      "Ġcouncil": 2336,
      "Ġareas": 2337,
      "./": 2338,
      "down": 2339,
      "})": 2340,
      "43": 2341,
      "ably": 2342,
      "Ġindivid": 2343,
      "ention": 2344,
      "Ġvict": 2345,
      "Ġinput": 2346,
      "Ġincluded": 2347,
      "Ġstruct": 2348,
      "\"),": 2349,
      "Ġaff": 2350,
      "abled": 2351,
      "ension": 2352,
      "Ġcolor": 2353,
      "Ġsun": 2354,
      "Ġpract": 2355,
      "Ġkingdom": 2356,
      "Ġemp": 2357,
      "ering": 2358,
      "!\"": 2359,
      "Ġwilliam": 2360,
      "Ġthink": 2361,
      "Ġce": 2362,
      "Ġ${": 2363,
      "change": 2364,
      "Ġhalf": 2365,
      "Ġtogether": 2366,
      "Ġwestern": 2367,
      "57": 2368,
      "Ġseason": 2369,
      "cret": 2370,
      "root": 2371,
      "ii": 2372,
      "adem": 2373,
      "Ġdays": 2374,
      "create": 2375,
      "Ġship": 2376,
      "Ġtour": 2377,
      "ief": 2378,
      "Ġengine": 2379,
      "Ġsoft": 2380,
      "Ġsea": 2381,
      "([": 2382,
      "Ġmoun": 2383,
      "ports": 2384,
      "52": 2385,
      "Ġda": 2386,
      "Ġcross": 2387,
      "Ġactiv": 2388,
      "Ġ28": 2389,
      "Ġplan": 2390,
      "Ġitem": 2391,
      "Ġcenter": 2392,
      "Ġcreated": 2393,
      "Ġ>": 2394,
      "itive": 2395,
      "Ġask": 2396,
      "Ġrail": 2397,
      "Ġindividual": 2398,
      "Ġseem": 2399,
      "ogn": 2400,
      "100": 2401,
      "ows": 2402,
      "rican": 2403,
      "mark": 2404,
      "status": 2405,
      "yl": 2406,
      "ney": 2407,
      "Ġcode": 2408,
      "Ġsam": 2409,
      "Ġtoo": 2410,
      "Ġder": 2411,
      "Ġaway": 2412,
      "Ġheav": 2413,
      "pan": 2414,
      "ential": 2415,
      "Ġfree": 2416,
      "rew": 2417,
      "Ġpap": 2418,
      "Ġeither": 2419,
      "tem": 2420,
      "Ġcountries": 2421,
      "olean": 2422,
      "Ġtry": 2423,
      "burg": 2424,
      "Ġsal": 2425,
      "Ġbecome": 2426,
      "Ġspecial": 2427,
      "ining": 2428,
      "info": 2429,
      "net": 2430,
      "Ġstory": 2431,
      "Ġattempt": 2432,
      "ened": 2433,
      "Ġexternal": 2434,
      "Ġhon": 2435,
      "Ġbusiness": 2436,
      "Ġdu": 2437,
      "._": 2438,
      "Ġengland": 2439,
      "Ġaward": 2440,
      "Ġconsidered": 2441,
      "53": 2442,
      "Ġbuilt": 2443,
      "ffic": 2444,
      "Ġbroad": 2445,
      "\">": 2446,
      "Ġsaw": 2447,
      "Ġmic": 2448,
      "Ġinstit": 2449,
      "Ġthus": 2450,
      "ges": 2451,
      "Ġothers": 2452,
      "};": 2453,
      "output": 2454,
      "anish": 2455,
      "Ġresol": 2456,
      "Ġsand": 2457,
      "Ġproduction": 2458,
      "Ġattack": 2459,
      "Ġins": 2460,
      "iron": 2461,
      "hand": 2462,
      "ops": 2463,
      "Ġmother": 2464,
      "(()": 2465,
      "Ġrace": 2466,
      "Ġroom": 2467,
      "Ġlou": 2468,
      "Ġinformation": 2469,
      "Ġthird": 2470,
      "ailable": 2471,
      "elt": 2472,
      "rem": 2473,
      "Ġalone": 2474,
      "sequ": 2475,
      "plied": 2476,
      "Ġsitting": 2477,
      "wards": 2478,
      "Ġwall": 2479,
      "Ġbur": 2480,
      "========": 2481,
      "mbol": 2482,
      "Ġstrong": 2483,
      "module": 2484,
      "rary": 2485,
      "Ġbuilding": 2486,
      "Ġfood": 2487,
      "Ġdepart": 2488,
      "stand": 2489,
      "child": 2490,
      "ality": 2491,
      "Ġseen": 2492,
      "Ġwant": 2493,
      "ability": 2494,
      "Ġliter": 2495,
      "cial": 2496,
      "Ġeuropean": 2497,
      "ming": 2498,
      "odes": 2499,
      "util": 2500,
      "Ġimportant": 2501,
      "Ġsold": 2502,
      "Ġque": 2503,
      "volution": 2504,
      "istic": 2505,
      "rel": 2506,
      "Ġoccur": 2507,
      "Ġforces": 2508,
      "Ġcreat": 2509,
      "host": 2510,
      "Ġ22": 2511,
      "leg": 2512,
      "ead": 2513,
      "Ġsize": 2514,
      "ana": 2515,
      "Ġuser": 2516,
      "default": 2517,
      "Ġresid": 2518,
      "Ġkind": 2519,
      "Ġwro": 2520,
      "Ġ23": 2521,
      "Ġinf": 2522,
      "ocr": 2523,
      "osp": 2524,
      "().": 2525,
      "Ġjour": 2526,
      "Ġgames": 2527,
      "ype": 2528,
      "ume": 2529,
      "ql": 2530,
      "Ġcontext": 2531,
      "den": 2532,
      "left": 2533,
      "Ġcou": 2534,
      "provider": 2535,
      "Ġeth": 2536,
      "Ġconstit": 2537,
      "ville": 2538,
      "Ġever": 2539,
      "oice": 2540,
      "Ġalbum": 2541,
      "Ġcompon": 2542,
      "Ġacadem": 2543,
      "Ġindian": 2544,
      "gro": 2545,
      "Ġreleased": 2546,
      "Ġsignific": 2547,
      "Ġposition": 2548,
      "Ġ(!": 2549,
      "Ġhtt": 2550,
      "06": 2551,
      "umer": 2552,
      "ĊĠĠĠĠĠĠĠĠĠĠĠĠĠĠĠĠĠĠĠĠĠĠĠĠĠĠĠĠ": 2553,
      "Ġinterest": 2554,
      "Ġchristian": 2555,
      "Ġofficial": 2556,
      "open": 2557,
      "198": 2558,
      "Ġrather": 2559,
      "Ġtur": 2560,
      "Ġwalk": 2561,
      "Ġsociety": 2562,
      "amb": 2563,
      "ias": 2564,
      "Ġgirl": 2565,
      "aff": 2566,
      "bb": 2567,
      "Ġ29": 2568,
      "ising": 2569,
      "Ġdisco": 2570,
      "41": 2571,
      "Ġflo": 2572,
      "Ġstyle": 2573,
      "Ġ1990": 2574,
      "Ġanal": 2575,
      "aterial": 2576,
      "Ġappear": 2577,
      "Ġfix": 2578,
      "Ġnovel": 2579,
      "ceed": 2580,
      "Ġdate": 2581,
      "Ġnatural": 2582,
      "Ġdou": 2583,
      "died": 2584,
      "Ġsyn": 2585,
      "ĊĠĠĠĠĠĠĠĠĠĠĠĠĠĠĠĠĠĠĠĠĠĠĠ": 2586,
      "Ġprivate": 2587,
      "Ġfinal": 2588,
      "aint": 2589,
      "Ġterrit": 2590,
      "Ġmid": 2591,
      "Ġjew": 2592,
      "Ġtransl": 2593,
      "Ġresearch": 2594,
      "Ġcopy": 2595,
      "Ġnative": 2596,
      "Ġhouseholds": 2597,
      "Ġrequired": 2598,
      "inition": 2599,
      "03": 2600,
      "Ġmessage": 2601,
      "max": 2602,
      "join": 2603,
      "Ġje": 2604,
      "Ġlinks": 2605,
      "cher": 2606,
      "iple": 2607,
      "ators": 2608,
      "assert": 2609,
      "Ġox": 2610,
      "Ġmiddle": 2611,
      "])": 2612,
      "Ġber": 2613,
      "ini": 2614,
      "Ġroyal": 2615,
      "do": 2616,
      "Ġtelevision": 2617,
      "Ġaverage": 2618,
      "env": 2619,
      "Ġempire": 2620,
      "ux": 2621,
      "Ġstanding": 2622,
      "Ġrepublic": 2623,
      "Ġbegin": 2624,
      "Ġet": 2625,
      "Ġacross": 2626,
      "tings": 2627,
      "ties": 2628,
      "ping": 2629,
      "icle": 2630,
      "lobal": 2631,
      "Ġchange": 2632,
      "ideo": 2633,
      "Ġadmin": 2634,
      "Ġeg": 2635,
      "Ġinstr": 2636,
      "Ġinvol": 2637,
      "olic": 2638,
      "Ġabove": 2639,
      "Ġreceived": 2640,
      "Ġ->": 2641,
      "Ġcirc": 2642,
      "Ġsuggest": 2643,
      "Ġsound": 2644,
      "Ġgrand": 2645,
      "Ġoffice": 2646,
      "Ġmountain": 2647,
      "].": 2648,
      "Ġwrote": 2649,
      "Ġ26": 2650,
      "95": 2651,
      "ained": 2652,
      "istry": 2653,
      "trans": 2654,
      "Ġafrican": 2655,
      "sub": 2656,
      "agent": 2657,
      "Ġ(\"": 2658,
      "body": 2659,
      "/**": 2660,
      "Ġjer": 2661,
      "Ġhill": 2662,
      "\");": 2663,
      "wid": 2664,
      "ugin": 2665,
      "Ġprevious": 2666,
      "ream": 2667,
      "ha": 2668,
      "Ġpot": 2669,
      "resol": 2670,
      "current": 2671,
      "Ġenc": 2672,
      "Ġcell": 2673,
      "ician": 2674,
      "Ġoptions": 2675,
      "Ġproduct": 2676,
      "century": 2677,
      "Ġwritten": 2678,
      "Ġscience": 2679,
      "expect": 2680,
      "Ġurl": 2681,
      "Ġprinc": 2682,
      "Ġabs": 2683,
      "Ġrespon": 2684,
      "Ġoutput": 2685,
      "files": 2686,
      "Ġcertain": 2687,
      "fn": 2688,
      "Ġeconomic": 2689,
      "oper": 2690,
      "ban": 2691,
      "Ġlocated": 2692,
      "color": 2693,
      "itch": 2694,
      "sup": 2695,
      "Ġsepar": 2696,
      "uk": 2697,
      "Ġnorthern": 2698,
      "Ġjames": 2699,
      "Ġhous": 2700,
      "Ġmuse": 2701,
      "itted": 2702,
      "Ġsystems": 2703,
      "ises": 2704,
      "direct": 2705,
      "Ġgeorge": 2706,
      "base": 2707,
      "asc": 2708,
      "Ġlove": 2709,
      "Ġground": 2710,
      "Ġamerica": 2711,
      "upright": 2712,
      "Ġregard": 2713,
      "Ġsqu": 2714,
      "Ġstat": 2715,
      "Ġfac": 2716,
      "can": 2717,
      "Ġq": 2718,
      "Ġfootball": 2719,
      "Ġlargest": 2720,
      "Ġmeas": 2721,
      "Ġface": 2722,
      "sel": 2723,
      "init": 2724,
      "Ġclose": 2725,
      "rael": 2726,
      "Ġleague": 2727,
      "Ġcoast": 2728,
      "ending": 2729,
      "Ġaction": 2730,
      "Ġdeveloped": 2731,
      "Ġminister": 2732,
      "Ġmal": 2733,
      "utes": 2734,
      "apt": 2735,
      "Ġblue": 2736,
      "uel": 2737,
      "Ġinstead": 2738,
      "Ġ/>": 2739,
      "ico": 2740,
      "false": 2741,
      "Ġpay": 2742,
      "Ġpolic": 2743,
      "Ġalways": 2744,
      "Ġcommunity": 2745,
      "Ġpast": 2746,
      "ellow": 2747,
      "Ġbrother": 2748,
      "Ġ2008": 2749,
      "Ġ],": 2750,
      "Ġstep": 2751,
      "Ġstri": 2752,
      "only": 2753,
      "Ġdavid": 2754,
      "Ġdep": 2755,
      "Ġgreek": 2756,
      "nal": 2757,
      "Ġcollege": 2758,
      "Ġgermany": 2759,
      "iment": 2760,
      "Ġball": 2761,
      "typ": 2762,
      "rest": 2763,
      "Ġstatus": 2764,
      "Ġmaking": 2765,
      "Ġeducation": 2766,
      "Ġmember": 2767,
      "Ġhom": 2768,
      "well": 2769,
      "Ġpaul": 2770,
      "position": 2771,
      "ique": 2772,
      "exports": 2773,
      "Ġcost": 2774,
      "Ġapplic": 2775,
      "Ġmaterial": 2776,
      "ww": 2777,
      "title": 2778,
      "Ġleast": 2779,
      "ference": 2780,
      "Ġhall": 2781,
      "Ġ27": 2782,
      "Ġlive": 2783,
      "ergy": 2784,
      "Ġyet": 2785,
      "Ġsignificant": 2786,
      "Ġstation": 2787,
      "oke": 2788,
      "Ġmuseum": 2789,
      "Ġtarget": 2790,
      "iers": 2791,
      "craft": 2792,
      "Ġstudy": 2793,
      "check": 2794,
      "Ġ2007": 2795,
      "Ġtim": 2796,
      "Ġquest": 2797,
      "ned": 2798,
      "Ġsouthern": 2799,
      "ready": 2800,
      "Ġflow": 2801,
      "Ġbig": 2802,
      "alled": 2803,
      "see": 2804,
      "Ġrights": 2805,
      "]);": 2806,
      "Ġgroups": 2807,
      "Ġspecies": 2808,
      "vis": 2809,
      "Ġcharles": 2810,
      "ĠĠĠĠĠ": 2811,
      "adata": 2812,
      "Ġdiff": 2813,
      "iforn": 2814,
      "ours": 2815,
      "Ġavailable": 2816,
      "ĠâĢĶ": 2817,
      "ades": 2818,
      "Ġmur": 2819,
      "Ġ1980": 2820,
      "51": 2821,
      "ironment": 2822,
      "sr": 2823,
      "Ġmac": 2824,
      "ca": 2825,
      "Ġarm": 2826,
      "column": 2827,
      "Ġfeder": 2828,
      "Ġfig": 2829,
      "Ġdied": 2830,
      "Ġheart": 2831,
      "Ġfranc": 2832,
      "Ġborn": 2833,
      "Ġphilos": 2834,
      "rian": 2835,
      "Ġrecogn": 2836,
      "ables": 2837,
      "Ġunknown": 2838,
      "style": 2839,
      "ply": 2840,
      "Ġfa": 2841,
      "Ġ2011": 2842,
      "Ġtell": 2843,
      "Ġrender": 2844,
      "Ġten": 2845,
      "Ġcam": 2846,
      "cache": 2847,
      "oll": 2848,
      "Ġretrie": 2849,
      "Ġ2012": 2850,
      "Ġfilms": 2851,
      "Ġpage": 2852,
      "aries": 2853,
      "core": 2854,
      "Ġtheory": 2855,
      "Ġalmost": 2856,
      "Ġbc": 2857,
      "07": 2858,
      "aves": 2859,
      "Ġpromise": 2860,
      "Ġcapital": 2861,
      "Ġ65": 2862,
      "Ġproduced": 2863,
      "american": 2864,
      "Ġradio": 2865,
      "Ġmart": 2866,
      "Ġforeign": 2867,
      "Ġuk": 2868,
      "Ġhealth": 2869,
      "Ġparts": 2870,
      "Ġsen": 2871,
      "Ġbooks": 2872,
      "roy": 2873,
      "Ġvill": 2874,
      "Ġstandard": 2875,
      "ria": 2876,
      "Ġprop": 2877,
      "Ġcontinued": 2878,
      "Ġoffer": 2879,
      "Ġ2009": 2880,
      "verse": 2881,
      "Ġconnect": 2882,
      "Ġben": 2883,
      "lim": 2884,
      "Ġrobert": 2885,
      "dict": 2886,
      "Ġthom": 2887,
      "Ġboolean": 2888,
      "Ġsecret": 2889,
      "antic": 2890,
      "params": 2891,
      "ifornia": 2892,
      "Ġthings": 2893,
      "contain": 2894,
      "Ġrange": 2895,
      "Ġara": 2896,
      "miss": 2897,
      "Ã³": 2898,
      "Ġusually": 2899,
      "Ġdescribed": 2900,
      "Ã¶": 2901,
      "Ġaddition": 2902,
      "Ġevents": 2903,
      "proper": 2904,
      "Ġ2013": 2905,
      "Ġheight": 2906,
      "Ġsubject": 2907,
      "Ġplayed": 2908,
      "Ġsometimes": 2909,
      "chang": 2910,
      "Ġhapp": 2911,
      "da": 2912,
      "Ġblo": 2913,
      "Ġcontribut": 2914,
      "oney": 2915,
      "Ġwords": 2916,
      "Ġdig": 2917,
      "width": 2918,
      "doc": 2919,
      "gener": 2920,
      "Ġlower": 2921,
      "Ġclear": 2922,
      "thumb": 2923,
      "Ġcheck": 2924,
      "ception": 2925,
      "Ġisrael": 2926,
      "86": 2927,
      "Ġ2006": 2928,
      "works": 2929,
      "Ġstop": 2930,
      "label": 2931,
      "Ġemb": 2932,
      "Ġchina": 2933,
      "igr": 2934,
      "ios": 2935,
      "Ġround": 2936,
      "uit": 2937,
      "prompt": 2938,
      "Ġclub": 2939,
      "Ġple": 2940,
      "org": 2941,
      "chart": 2942,
      "Ġmich": 2943,
      "Ġwil": 2944,
      "Ġsit": 2945,
      "wood": 2946,
      "Ġdeter": 2947,
      "Ġpen": 2948,
      ".)": 2949,
      "Ġphot": 2950,
      "Ġaud": 2951,
      "Ġboard": 2952,
      "size": 2953,
      "Ġaccept": 2954,
      "Ġpet": 2955,
      "Ġpossible": 2956,
      "Ġhenry": 2957,
      "Ġtaken": 2958,
      "lay": 2959,
      "à¸": 2960,
      "Ġvalid": 2961,
      "96": 2962,
      "atter": 2963,
      "ires": 2964,
      "Ġgave": 2965,
      "Ġload": 2966,
      "Ġfrequ": 2967,
      "Ã¼": 2968,
      "inese": 2969,
      "Ġtrade": 2970,
      "thing": 2971,
      "Ġze": 2972,
      "ba": 2973,
      "Ġfort": 2974,
      "Ġdone": 2975,
      "Ġcath": 2976,
      "84": 2977,
      "Ġsoftware": 2978,
      "Ġproble": 2979,
      "Ġcalifornia": 2980,
      "curity": 2981,
      "Ċĉĉĉĉĉĉ": 2982,
      "Ġmeet": 2983,
      "Ġbreak": 2984,
      "unic": 2985,
      "Ġvot": 2986,
      "ara": 2987,
      "han": 2988,
      "fs": 2989,
      "Ġjson": 2990,
      "Ġinvest": 2991,
      "Ġdeb": 2992,
      "ox": 2993,
      "Ġcomputer": 2994,
      "Ġdescription": 2995,
      "Ġdocument": 2996,
      "Ġlost": 2997,
      "Ġproduc": 2998,
      "Ġtor": 2999,
      "94": 3000,
      "Ġpict": 3001,
      "Ġâ": 3002,
      "Ġdut": 3003,
      "parent": 3004,
      "db": 3005,
      "iant": 3006,
      "Ġexcept": 3007,
      "uments": 3008,
      "ago": 3009,
      "Ġhot": 3010,
      "erset": 3011,
      "ÃŃ": 3012,
      "viet": 3013,
      "mode": 3014,
      "Ġevid": 3015,
      "vert": 3016,
      "process": 3017,
      "Ġdemocr": 3018,
      "Ġlines": 3019,
      "server": 3020,
      "\"],": 3021,
      "ags": 3022,
      "Ġhelp": 3023,
      "Ġdesp": 3024,
      "Ġfeature": 3025,
      "async": 3026,
      "Ġdepend": 3027,
      "ael": 3028,
      "Ġlibrary": 3029,
      "Ġsus": 3030,
      "Ġgive": 3031,
      "Ġoutside": 3032,
      "enced": 3033,
      "pop": 3034,
      "Ġeyes": 3035,
      "Ġquery": 3036,
      "erson": 3037,
      "Ġboy": 3038,
      "abase": 3039,
      "Ġlad": 3040,
      "Ġ50": 3041,
      "Ġwhose": 3042,
      "Ġbed": 3043,
      "Ġimp": 3044,
      "ounced": 3045,
      "Ġmarket": 3046,
      "Ġreason": 3047,
      "ection": 3048,
      "Ġculture": 3049,
      "pace": 3050,
      "Ġlake": 3051,
      "duct": 3052,
      "Ġolder": 3053,
      "Ġliber": 3054,
      "holder": 3055,
      "Ġ!==": 3056,
      "Ġvideo": 3057,
      "Ġinte": 3058,
      "cast": 3059,
      "Ġdog": 3060,
      "Ġeastern": 3061,
      "Ġcompet": 3062,
      "Ġ32": 3063,
      "uation": 3064,
      "Ġcustom": 3065,
      "Ġ{}": 3066,
      "Ġunits": 3067,
      "ilies": 3068,
      "Ġmap": 3069,
      "Ġcolon": 3070,
      "[]": 3071,
      "Ġsem": 3072,
      "Ġlik": 3073,
      "Ġtransport": 3074,
      "Ġmach": 3075,
      "Ġbound": 3076,
      "Ġsite": 3077,
      "toc": 3078,
      "Ġrespect": 3079,
      "ee": 3080,
      "Ġchart": 3081,
      "Ġancient": 3082,
      "Ġretrieved": 3083,
      "button": 3084,
      "asing": 3085,
      "toh": 3086,
      "Ġemploy": 3087,
      "Ġ['": 3088,
      "Ġtemper": 3089,
      "ds": 3090,
      "87": 3091,
      "none": 3092,
      "ipp": 3093,
      "dp": 3094,
      "ula": 3095,
      "Ġnames": 3096,
      "active": 3097,
      "dr": 3098,
      "Ġneg": 3099,
      "ym": 3100,
      "Ġdisplay": 3101,
      "Ġemper": 3102,
      "Ġcit": 3103,
      "unk": 3104,
      "like": 3105,
      "Ġexc": 3106,
      "Ġitalian": 3107,
      "ump": 3108,
      "ui": 3109,
      "task": 3110,
      "plement": 3111,
      "arian": 3112,
      "Ġ2014": 3113,
      "Ġscient": 3114,
      "Ġbrought": 3115,
      "Ġnetwork": 3116,
      "Ġpoet": 3117,
      "mit": 3118,
      "image": 3119,
      "ania": 3120,
      "Ġsuff": 3121,
      "Ġoccup": 3122,
      "push": 3123,
      "ses": 3124,
      "Ġelements": 3125,
      "args": 3126,
      "token": 3127,
      "essages": 3128,
      "Ġbud": 3129,
      "Ġadminist": 3130,
      "semb": 3131,
      "Ġham": 3132,
      "Ġincome": 3133,
      "ta": 3134,
      "iation": 3135,
      "airs": 3136,
      "Ġalex": 3137,
      "Ġchamp": 3138,
      "Ġfriend": 3139,
      "rect": 3140,
      "uration": 3141,
      "tic": 3142,
      "rup": 3143,
      "Ġwriting": 3144,
      "Ġspanish": 3145,
      "Ġfund": 3146,
      "bc": 3147,
      "Ġrow": 3148,
      "Ġcorn": 3149,
      "ulated": 3150,
      "Ġwife": 3151,
      "isl": 3152,
      "Ġchem": 3153,
      "Ġchap": 3154,
      "97": 3155,
      "Ġitself": 3156,
      "group": 3157,
      "west": 3158,
      "hib": 3159,
      "pecially": 3160,
      "Ġservices": 3161,
      "92": 3162,
      "Ġfemale": 3163,
      "Ġborder": 3164,
      "medi": 3165,
      "Ġspir": 3166,
      "Ġdark": 3167,
      "tequal": 3168,
      "Ġnode": 3169,
      "Ġschol": 3170,
      "ails": 3171,
      "Ġmind": 3172,
      "md": 3173,
      "oul": 3174,
      "Ġlouis": 3175,
      "%)": 3176,
      "Ġdam": 3177,
      "82": 3178,
      "Ġexecut": 3179,
      "ishing": 3180,
      "Ġoptional": 3181,
      "bor": 3182,
      "Ġestablish": 3183,
      "Ġafric": 3184,
      "bes": 3185,
      "Ġkm": 3186,
      "Ġ2015": 3187,
      "Ġfollowed": 3188,
      "Ġmeans": 3189,
      "Ġcolumn": 3190,
      "Ġepis": 3191,
      "band": 3192,
      "Ġviol": 3193,
      "Ġnar": 3194,
      "Ġspecific": 3195,
      "Ġprovided": 3196,
      "pose": 3197,
      "Ġlabel": 3198,
      "ste": 3199,
      "includ": 3200,
      "Ġmovement": 3201,
      "Ġach": 3202,
      "Ġearl": 3203,
      "inary": 3204,
      "Ġcut": 3205,
      "kens": 3206,
      "Ġfav": 3207,
      "Ġchanged": 3208,
      "option": 3209,
      "Ġchinese": 3210,
      "Ġmatch": 3211,
      "bit": 3212,
      "Ġimpro": 3213,
      "Ġbank": 3214,
      "Ġreview": 3215,
      "................": 3216,
      "ughter": 3217,
      "Ġentire": 3218,
      "Ġislands": 3219,
      "Ġ2005": 3220,
      "Ġrequire": 3221,
      "Ġsoon": 3222,
      "hist": 3223,
      "ership": 3224,
      "Ġ}),": 3225,
      "Ġdyn": 3226,
      "Ġcomponent": 3227,
      "Ġbelow": 3228,
      "Ġalready": 3229,
      "Ġmale": 3230,
      "schema": 3231,
      "Ġkeep": 3232,
      "iding": 3233,
      "Ġ40": 3234,
      "Ġbecom": 3235,
      "Ġgenerally": 3236,
      "Ġcommer": 3237,
      "Ġplaces": 3238,
      "Ġblock": 3239,
      "Ġbetter": 3240,
      "ibility": 3241,
      "write": 3242,
      "you": 3243,
      "lection": 3244,
      "Ġpac": 3245,
      "Ġindic": 3246,
      "Ġgoing": 3247,
      "hook": 3248,
      "Ġenvironment": 3249,
      "Ġpan": 3250,
      "Ġjournal": 3251,
      "Ġbow": 3252,
      "Ġmarried": 3253,
      "Ġlanguages": 3254,
      "Ġcand": 3255,
      "Ġfoc": 3256,
      "Ġgar": 3257,
      "selves": 3258,
      "Ġmad": 3259,
      "Ġjack": 3260,
      "93": 3261,
      "Ġcities": 3262,
      "Ġenergy": 3263,
      "Ġpassed": 3264,
      "Ġgot": 3265,
      "Ġ),": 3266,
      "Ġwhom": 3267,
      "Ġreturned": 3268,
      "respon": 3269,
      "rain": 3270,
      "Ġsoviet": 3271,
      "Ġhun": 3272,
      "83": 3273,
      "etch": 3274,
      "Ġcompan": 3275,
      "cks": 3276,
      "ypt": 3277,
      "Ġcommit": 3278,
      "omb": 3279,
      "Ġholding": 3280,
      "number": 3281,
      "ift": 3282,
      "Ġsymbol": 3283,
      "Ġcommission": 3284,
      "inct": 3285,
      "Ġnature": 3286,
      "ero": 3287,
      "ror": 3288,
      "year": 3289,
      "Ġchief": 3290,
      "manager": 3291,
      "Ġcomplex": 3292,
      "za": 3293,
      "Ġrepl": 3294,
      "leted": 3295,
      "Ġdefe": 3296,
      "Ġformed": 3297,
      "Ġlear": 3298,
      "berg": 3299,
      "Ġthroughout": 3300,
      "Ġesc": 3301,
      "Ġthrow": 3302,
      "icens": 3303,
      "strict": 3304,
      "license": 3305,
      "Ġ[\"": 3306,
      "Ġfut": 3307,
      "Ġnotes": 3308,
      "Ġ2016": 3309,
      "Ġmom": 3310,
      "Ġmedian": 3311,
      "block": 3312,
      "ucle": 3313,
      "Ġelection": 3314,
      "nh": 3315,
      "Ġbehind": 3316,
      "Ġdescribe": 3317,
      "Ġadditional": 3318,
      "Ġlived": 3319,
      "Ġanti": 3320,
      "Ġnews": 3321,
      "Ġagent": 3322,
      "Ġtree": 3323,
      ")).": 3324,
      "Ġscreen": 3325,
      "pat": 3326,
      "Ġcro": 3327,
      "Ġlaun": 3328,
      "Ġwait": 3329,
      "Ġroute": 3330,
      "Ġtalk": 3331,
      "Ġ'../": 3332,
      "Ġ1970": 3333,
      "Ġhigher": 3334,
      "Ġemperor": 3335,
      "Ġrule": 3336,
      "ensive": 3337,
      "Ġrussian": 3338,
      "Ġafrica": 3339,
      "ĊĊĉ": 3340,
      "Ġmales": 3341,
      "Ġasked": 3342,
      "Ġhistorical": 3343,
      "gu": 3344,
      "light": 3345,
      "Ġresults": 3346,
      "ocks": 3347,
      "Ġindia": 3348,
      "Ġespecially": 3349,
      "}`": 3350,
      "hy": 3351,
      "Ġimm": 3352,
      "Ġdistributed": 3353,
      "Ġarri": 3354,
      "Ġsomething": 3355,
      "Ġuses": 3356,
      "Ġpeace": 3357,
      "Ġwidth": 3358,
      "erv": 3359,
      "Ġcard": 3360,
      "oon": 3361,
      "imately": 3362,
      "Ġsex": 3363,
      "nd": 3364,
      "Ġyield": 3365,
      "mission": 3366,
      "Ġdepartment": 3367,
      "Ġglobal": 3368,
      "Ġorganization": 3369,
      "Ġfle": 3370,
      "Ġ2004": 3371,
      "Ġmoved": 3372,
      "Ġforest": 3373,
      "Ġparis": 3374,
      "Ġjapanese": 3375,
      "Ġdead": 3376,
      "Ġly": 3377,
      "Ġadded": 3378,
      "Ġplaying": 3379,
      "Ġnothing": 3380,
      "Ġpsy": 3381,
      "arily": 3382,
      "Ġpie": 3383,
      "Ġtask": 3384,
      "Ġlimit": 3385,
      "Ġenough": 3386,
      "prefix": 3387,
      "Ġserved": 3388,
      "ancy": 3389,
      "Ġ31": 3390,
      "Ġprob": 3391,
      "Ġmex": 3392,
      "nection": 3393,
      "Ġterms": 3394,
      "Ġnom": 3395,
      "Ġ'@": 3396,
      "atory": 3397,
      "fully": 3398,
      "Ġ??": 3399,
      "Ġfrank": 3400,
      "uses": 3401,
      "Ġwashing": 3402,
      "Ġwhether": 3403,
      "rowser": 3404,
      "Ġconstitution": 3405,
      "Ġec": 3406,
      "ailed": 3407,
      "Ġactor": 3408,
      "Ġhands": 3409,
      "Ġprompt": 3410,
      "vg": 3411,
      "Ġrichard": 3412,
      "Ġmodels": 3413,
      "rad": 3414,
      "Ġcoll": 3415,
      "Ġrul": 3416,
      "Ġprime": 3417,
      "Ġaustralia": 3418,
      "ffort": 3419,
      "Ġbrown": 3420,
      "Ġunto": 3421,
      "Ġinitial": 3422,
      "Ġ2019": 3423,
      "char": 3424,
      "Ġspeak": 3425,
      "ores": 3426,
      "Ġye": 3427,
      "Ġtenn": 3428,
      "umbers": 3429,
      "cp": 3430,
      "pri": 3431,
      "html": 3432,
      "Ġmary": 3433,
      "Ġpy": 3434,
      "ills": 3435,
      "Ġsnow": 3436,
      "case": 3437,
      "Ġlos": 3438,
      "Ġtold": 3439,
      "Ġcanada": 3440,
      "Ġprint": 3441,
      "Ġincludes": 3442,
      "Ġ2017": 3443,
      "Ġut": 3444,
      "istan": 3445,
      "Ġseven": 3446,
      "Ġpercent": 3447,
      "Ġtax": 3448,
      "array": 3449,
      "Ġrevolution": 3450,
      "shot": 3451,
      "Ġprotect": 3452,
      "Ġprote": 3453,
      "Ġng": 3454,
      "Ġthomas": 3455,
      "tra": 3456,
      "Ġmel": 3457,
      "Ġindex": 3458,
      "ontain": 3459,
      "pression": 3460,
      "Ġpolitician": 3461,
      "itz": 3462,
      "Ġsaint": 3463,
      "Ġtit": 3464,
      "Ġban": 3465,
      "Ġ2018": 3466,
      "oh": 3467,
      "duction": 3468,
      "pty": 3469,
      "uff": 3470,
      "usion": 3471,
      "Ġpeter": 3472,
      "Ġallowed": 3473,
      "Ġtravel": 3474,
      "project": 3475,
      "Ġreligious": 3476,
      "Ġvan": 3477,
      "post": 3478,
      "atform": 3479,
      "Ġbox": 3480,
      "ili": 3481,
      "chan": 3482,
      "comple": 3483,
      "ilities": 3484,
      "Ġsources": 3485,
      "ips": 3486,
      "la": 3487,
      "has": 3488,
      "Ġmedia": 3489,
      "Ġlink": 3490,
      "Ġvers": 3491,
      "itect": 3492,
      "Ġ64": 3493,
      "Ġleading": 3494,
      "Ġinstance": 3495,
      "irm": 3496,
      "Ġresidents": 3497,
      "nic": 3498,
      "resh": 3499,
      "aign": 3500,
      "Ġbul": 3501,
      "room": 3502,
      "iance": 3503,
      "Ġfair": 3504,
      "Ġappeared": 3505,
      "rial": 3506,
      "Ġvoid": 3507,
      "Ġoce": 3508,
      "Ġintroduced": 3509,
      "ĊĠĠĠĠĠĠĠĠĠĠĠĠĠĠĠĠĠ": 3510,
      "instance": 3511,
      "Ġdespite": 3512,
      "Ġworking": 3513,
      "ander": 3514,
      "Ġable": 3515,
      "lands": 3516,
      "Ġconsider": 3517,
      "Ġsecurity": 3518,
      "Ġfemales": 3519,
      "Ġcatholic": 3520,
      "++": 3521,
      "ender": 3522,
      "agement": 3523,
      "cer": 3524,
      "word": 3525,
      "Ġali": 3526,
      "Ġvia": 3527,
      "lying": 3528,
      "vention": 3529,
      "Ġconditions": 3530,
      "Ġarab": 3531,
      "Ġconcern": 3532,
      "icult": 3533,
      "ains": 3534,
      "Ġtrain": 3535,
      "inated": 3536,
      "Ġvac": 3537,
      "Ġwashington": 3538,
      "Ġmaintain": 3539,
      "anced": 3540,
      "Ġbeginning": 3541,
      "Ġign": 3542,
      "Ġnormal": 3543,
      "Ġbirth": 3544,
      "Ġstructure": 3545,
      "Ġexpected": 3546,
      "Ġdict": 3547,
      "Ġfederal": 3548,
      "Ġplant": 3549,
      "book": 3550,
      "Ġopened": 3551,
      "types": 3552,
      "det": 3553,
      "Ġ2001": 3554,
      "py": 3555,
      "Ġchanges": 3556,
      "organ": 3557,
      "Ġthing": 3558,
      "Ġlabor": 3559,
      "Ġreported": 3560,
      "Ġcritic": 3561,
      "ingu": 3562,
      "update": 3563,
      "Ġfounded": 3564,
      "Ġmos": 3565,
      "Ġnumer": 3566,
      "Ġegypt": 3567,
      "Ġtransform": 3568,
      "Ġmicro": 3569,
      "Ġwrite": 3570,
      "scope": 3571,
      "Ġdim": 3572,
      "Ġcollect": 3573,
      "Ġconsist": 3574,
      "atives": 3575,
      "Ġstarted": 3576,
      "Ġiii": 3577,
      "Ġess": 3578,
      "Ġdirector": 3579,
      "pol": 3580,
      "Ġax": 3581,
      "Ġtherefore": 3582,
      "Ġwhole": 3583,
      "errors": 3584,
      "aur": 3585,
      "Ġnucle": 3586,
      "span": 3587,
      "Ġbay": 3588,
      "Ġinfluence": 3589,
      "ensity": 3590,
      "Ġthemselves": 3591,
      "Ġreact": 3592,
      "Ġmonths": 3593,
      "Ġparli": 3594,
      "ename": 3595,
      "Ġforms": 3596,
      "Ġeight": 3597,
      "Ġ--": 3598,
      "Ġturned": 3599,
      "Ġ]": 3600,
      "Ġmix": 3601,
      "Ġfill": 3602,
      "Ġdeep": 3603,
      "description": 3604,
      "hest": 3605,
      "Ġremained": 3606,
      "nes": 3607,
      "Ġassociation": 3608,
      "Ġfeatures": 3609,
      "Ġscott": 3610,
      "mat": 3611,
      "Ġfight": 3612,
      "Ġstra": 3613,
      "Ġlength": 3614,
      "amic": 3615,
      "Ġtemplate": 3616,
      "asion": 3617,
      "Ġord": 3618,
      "Ġmultiple": 3619,
      "angular": 3620,
      "Ġcampaign": 3621,
      "Ġsir": 3622,
      "Ġconstant": 3623,
      "():": 3624,
      "Ġmoney": 3625,
      "ns": 3626,
      "Ġpoor": 3627,
      "Ġaccount": 3628,
      "Ġkilled": 3629,
      "ledge": 3630,
      "Ġevidence": 3631,
      "ding": 3632,
      "ita": 3633,
      "aring": 3634,
      "Ġtypes": 3635,
      "elled": 3636,
      "Ġpolicy": 3637,
      "ifier": 3638,
      "Ġpack": 3639,
      "timeout": 3640,
      "Ġactive": 3641,
      "tocontain": 3642,
      "itude": 3643,
      "Ġfailed": 3644,
      "Ġhus": 3645,
      "Ġschools": 3646,
      "'d": 3647,
      "Ġbaseball": 3648,
      "first": 3649,
      "Ġpsych": 3650,
      "pass": 3651,
      "Ġvoice": 3652,
      "Ċĉĉĉĉĉ": 3653,
      "Ġnecess": 3654,
      "Ġ2002": 3655,
      "lor": 3656,
      "Ġsearch": 3657,
      "sm": 3658,
      "Ġprimary": 3659,
      "Ġacqu": 3660,
      "Ġarchitect": 3661,
      "Ġindependent": 3662,
      "now": 3663,
      "settings": 3664,
      "sor": 3665,
      "Äģ": 3666,
      "Ġconcept": 3667,
      "icles": 3668,
      "Ġparliament": 3669,
      "Ġproperty": 3670,
      "top": 3671,
      "Ġ1960": 3672,
      "Ġangel": 3673,
      "dev": 3674,
      "win": 3675,
      "Ġfamilies": 3676,
      "rec": 3677,
      "Ġdesc": 3678,
      "Ġprince": 3679,
      "Ġassociated": 3680,
      "last": 3681,
      "ij": 3682,
      "Ġ/**": 3683,
      "Ġcharacters": 3684,
      "Ġperformance": 3685,
      "Ġtrack": 3686,
      "Ġbal": 3687,
      "Ġweek": 3688,
      "Ġfuture": 3689,
      "fort": 3690,
      "Ġbor": 3691,
      "Ġiv": 3692,
      "Ġrap": 3693,
      "link": 3694,
      "Ġ2003": 3695,
      "Ġeconomy": 3696,
      "sey": 3697,
      "Ġnumbers": 3698,
      "ashboard": 3699,
      "Ġmis": 3700,
      "Ġansw": 3701,
      "Ġcannot": 3702,
      "Ġ2022": 3703,
      "Ġfif": 3704,
      "âĶĢâĶĢâĶĢâĶĢ": 3705,
      "']": 3706,
      "table": 3707,
      "Ġven": 3708,
      "ufact": 3709,
      "----------------": 3710,
      "page": 3711,
      "Ġsurv": 3712,
      "Ġoperations": 3713,
      "Ġwat": 3714,
      "ride": 3715,
      "Ġstudies": 3716,
      "Ġsom": 3717,
      "Ġindustry": 3718,
      "Ġaddress": 3719,
      "render": 3720,
      "Ġ2024": 3721,
      "based": 3722,
      "Ġthou": 3723,
      "Ġdivision": 3724,
      "bour": 3725,
      "Ġannounced": 3726,
      "Ġcases": 3727,
      "Ġgrad": 3728,
      "Ġitaly": 3729,
      "Ġrelated": 3730,
      "Ġfields": 3731,
      "Ġreading": 3732,
      "fa": 3733,
      "asser": 3734,
      "Ġfun": 3735,
      "Ġvirgin": 3736,
      "Ġcommunic": 3737,
      "Ġpacific": 3738,
      "Ġpoints": 3739,
      "Ġgrowth": 3740,
      "Ġcause": 3741,
      "Ġwild": 3742,
      "Ġcourse": 3743,
      "Ġfest": 3744,
      "Ġletter": 3745,
      "Ġcentre": 3746,
      "'ll": 3747,
      "Ġtheat": 3748,
      "Ġtraditional": 3749,
      "Ġfeel": 3750,
      "Ġroot": 3751,
      "Ġparam": 3752,
      "click": 3753,
      "Ġprovide": 3754,
      "ipe": 3755,
      "names": 3756,
      "\\\\": 3757,
      "orial": 3758,
      "Ġvisit": 3759,
      "rang": 3760,
      "Ġbene": 3761,
      "Ġrank": 3762,
      "Ġbackground": 3763,
      "eds": 3764,
      "Ġ2021": 3765,
      "apshot": 3766,
      "0000": 3767,
      "Ġbad": 3768,
      "Ġappoint": 3769,
      "Ġquestion": 3770,
      "Ġhorse": 3771,
      "Ġnations": 3772,
      "Ġpersonal": 3773,
      "idden": 3774,
      "Ġmeaning": 3775,
      "anded": 3776,
      "Ġrob": 3777,
      "Ġ%": 3778,
      "va": 3779,
      "agon": 3780,
      "Ġdifficult": 3781,
      "sole": 3782,
      "Ġcongress": 3783,
      "Ġbeg": 3784,
      "cal": 3785,
      "Ġmanufact": 3786,
      "Ġconstruction": 3787,
      "Ġreform": 3788,
      "Ġcapture": 3789,
      "Ġobtain": 3790,
      "Ġsequ": 3791,
      "ensions": 3792,
      "'),": 3793,
      "Ġsurface": 3794,
      "ga": 3795,
      "Ġprefix": 3796,
      "etime": 3797,
      "bon": 3798,
      "tot": 3799,
      "tes": 3800,
      "Ġeffort": 3801,
      "ysis": 3802,
      "iff": 3803,
      "hab": 3804,
      "plugin": 3805,
      "ugg": 3806,
      "Ġlatin": 3807,
      "hood": 3808,
      "Ġmathem": 3809,
      "riage": 3810,
      "Ġremo": 3811,
      "she": 3812,
      "Ġsav": 3813,
      "Ġgard": 3814,
      "Ġassist": 3815,
      "bre": 3816,
      "Ġdestroy": 3817,
      "Ġdaughter": 3818,
      "Ġestim": 3819,
      "tokens": 3820,
      "]:": 3821,
      "Ġlooking": 3822,
      "don": 3823,
      "Ġdeg": 3824,
      "Ġarray": 3825,
      "Ġachie": 3826,
      "target": 3827,
      "wer": 3828,
      "Ġnote": 3829,
      "Ġ2023": 3830,
      "dd": 3831,
      "Ġcry": 3832,
      "Ġprior": 3833,
      "Ġblood": 3834,
      "Ġaircraft": 3835,
      "Ġunit": 3836,
      "Ġvalley": 3837,
      "Ġwindow": 3838,
      "Ġplate": 3839,
      "quest": 3840,
      "http": 3841,
      "Ġlooked": 3842,
      "height": 3843,
      "Ġbird": 3844,
      "Ġbab": 3845,
      "Ġapi": 3846,
      "Ġmechan": 3847,
      "Ġterritory": 3848,
      "Ġoil": 3849,
      "Ġsection": 3850,
      "Ġcomplete": 3851,
      "Ġmoment": 3852,
      "Ġcatch": 3853,
      "ousand": 3854,
      "Ġpow": 3855,
      "ricult": 3856,
      "Ġjose": 3857,
      "Ġsym": 3858,
      "Ġincreased": 3859,
      "irection": 3860,
      "ka": 3861,
      "onom": 3862,
      "Ġrecords": 3863,
      "exec": 3864,
      "Ġquick": 3865,
      "ram": 3866,
      "Ġrelease": 3867,
      "pack": 3868,
      "models": 3869,
      "91": 3870,
      "Ġaltern": 3871,
      "patch": 3872,
      "Ġfilter": 3873,
      "Ġsummer": 3874,
      "spec": 3875,
      "Ġtoday": 3876,
      "ivity": 3877,
      "Ġrev": 3878,
      "sol": 3879,
      "Ġsinger": 3880,
      "ously": 3881,
      "Ġhit": 3882,
      "des": 3883,
      "scri": 3884,
      "Ġdoor": 3885,
      "ky": 3886,
      "Ġlonger": 3887,
      "Ġocean": 3888,
      "Ġtradition": 3889,
      "tohave": 3890,
      "Ġneigh": 3891,
      "Ġ1999": 3892,
      "81": 3893,
      "Ġintegr": 3894,
      "Ġdeli": 3895,
      "definition": 3896,
      "Ġdraw": 3897,
      "bridge": 3898,
      "Ġ1992": 3899,
      "agn": 3900,
      "Ġgas": 3901,
      "anger": 3902,
      "Ġlocation": 3903,
      "Ġlegisl": 3904,
      "Ġ'./": 3905,
      "Ġtowards": 3906,
      "source": 3907,
      "Ġsubsequ": 3908,
      "Ġspirit": 3909,
      "Ġadm": 3910,
      "Ġsle": 3911,
      "src": 3912,
      "Ġapprox": 3913,
      "road": 3914,
      "Ġfer": 3915,
      "Ġrelationship": 3916,
      "Ġassemb": 3917,
      "Ġtechnology": 3918,
      "Ġdemocratic": 3919,
      "Ġprofession": 3920,
      "edy": 3921,
      "Ġasian": 3922,
      "Ġregular": 3923,
      "Ġsubst": 3924,
      "Ġphilosoph": 3925,
      "plit": 3926,
      "Ġgrant": 3927,
      "ĊĠĠĠĠĠĠĠĠĠĠĠĠĠĠĠĠĠĠĠĠĠĠĠĠĠĠĠ": 3928,
      "Ġcollection": 3929,
      "Ġdrop": 3930,
      "ental": 3931,
      "aching": 3932,
      "'],": 3933,
      "Ġparticularly": 3934,
      "Ġquar": 3935,
      "Ġonline": 3936,
      "Ġedition": 3937,
      "Ġfrancis": 3938,
      "Ġfast": 3939,
      "Ġprevent": 3940,
      "Ġta": 3941,
      "Ġ60": 3942,
      "Ġstage": 3943,
      "Ġvalues": 3944,
      "Ġwear": 3945,
      "Ġfiles": 3946,
      "%,": 3947,
      "Ġmichael": 3948,
      "ners": 3949,
      "Ġunderstand": 3950,
      "then": 3951,
      "lines": 3952,
      "reme": 3953,
      "Ġeventually": 3954,
      "undred": 3955,
      "Ġrecorded": 3956,
      "utils": 3957,
      "Ġcareer": 3958,
      "Ġagricult": 3959,
      "ari": 3960,
      "exam": 3961,
      "Ġregister": 3962,
      "Ġrespons": 3963,
      "Ġthousand": 3964,
      "Ġgal": 3965,
      "orpor": 3966,
      "Ġhttp": 3967,
      "Ġprogress": 3968,
      "Ġatl": 3969,
      "Ġindividuals": 3970,
      "Ġelected": 3971,
      "Ġoperation": 3972,
      "metadata": 3973,
      "assy": 3974,
      "flict": 3975,
      "********************************": 3976,
      "Ġcred": 3977,
      "['": 3978,
      "ferred": 3979,
      "Ġconserv": 3980,
      "Ġacademy": 3981,
      "ipal": 3982,
      "Ġcalc": 3983,
      "oted": 3984,
      "Ġextra": 3985,
      "https": 3986,
      "Ġpattern": 3987,
      "wind": 3988,
      "Ġmrs": 3989,
      "elling": 3990,
      "bel": 3991,
      "Ġthr": 3992,
      "Ġbridge": 3993,
      "Ġtaking": 3994,
      "Ġ2025": 3995,
      "arg": 3996,
      "sec": 3997,
      "zz": 3998,
      "Ġev": 3999,
      "ogle": 4000,
      "control": 4001,
      "Ġsmith": 4002,
      "Ġos": 4003,
      "ris": 4004,
      "Ġplayers": 4005,
      "Ġhyd": 4006,
      "theme": 4007,
      "king": 4008,
      "Ġburn": 4009,
      "Ġheard": 4010,
      "Ġswed": 4011,
      "Ġcup": 4012,
      "Ġqueen": 4013,
      "Ġpolice": 4014,
      "Ġsac": 4015,
      "Ġformat": 4016,
      "Ġbranch": 4017,
      "Ġ45": 4018,
      "script": 4019,
      "Ġhundred": 4020,
      "alog": 4021,
      "Ġairport": 4022,
      "Ġloss": 4023,
      "porary": 4024,
      "Ġgreater": 4025,
      "Ġsort": 4026,
      "Ġspring": 4027,
      "Ġgun": 4028,
      "ston": 4029,
      "Ġimper": 4030,
      "Ġelectron": 4031,
      "Ġrome": 4032,
      "Ġmission": 4033,
      "urs": 4034,
      "Ġclient": 4035,
      "Ġgovernor": 4036,
      "ech": 4037,
      "Ġ[]": 4038,
      "Ġflight": 4039,
      "vey": 4040,
      "encode": 4041,
      "car": 4042,
      "Ġnation": 4043,
      "entry": 4044,
      "non": 4045,
      "Ġseemed": 4046,
      "hers": 4047,
      "format": 4048,
      "ya": 4049,
      "Ġcanadian": 4050,
      "Ġstudents": 4051,
      "Ġgall": 4052,
      "Ġdeterm": 4053,
      "Ġinside": 4054,
      "Ġdan": 4055,
      "Ġscript": 4056,
      "Ġ({": 4057,
      "ffer": 4058,
      "Ġamb": 4059,
      "headers": 4060,
      "Ġha": 4061,
      "Ġsud": 4062,
      "har": 4063,
      "Ġ1998": 4064,
      "Ġpaper": 4065,
      "ques": 4066,
      "Ġcontinue": 4067,
      "Ġoriginally": 4068,
      "Ġwal": 4069,
      "Ġlegal": 4070,
      "Ġcounter": 4071,
      "Ġ1991": 4072,
      "Ġethnic": 4073,
      "Ġimmedi": 4074,
      "Ġmatter": 4075,
      "Ġkore": 4076,
      "Ġran": 4077,
      "Ġfelt": 4078,
      "Ġactress": 4079,
      "Ġmir": 4080,
      "mm": 4081,
      "Ġreached": 4082,
      "Ġrat": 4083,
      "Ġlimited": 4084,
      "Ġ35": 4085,
      "Ġhousing": 4086,
      "Ġcomplet": 4087,
      "ota": 4088,
      "Ġempty": 4089,
      "igned": 4090,
      "Ġattribut": 4091,
      "Ġfinally": 4092,
      "unt": 4093,
      "di": 4094,
      "Ġdeal": 4095,
      "Ġdie": 4096,
      "Ġ1996": 4097,
      "that": 4098,
      "Ġhandle": 4099,
      "tx": 4100,
      "Ġhaw": 4101,
      "vin": 4102,
      "Ġroll": 4103,
      "Ġcompleted": 4104,
      "Ġvari": 4105,
      "dim": 4106,
      "erged": 4107,
      "Ġful": 4108,
      "Ġlack": 4109,
      "Ġaustralian": 4110,
      "Ġminor": 4111,
      "inet": 4112,
      "Ġfoundation": 4113,
      "Ġleader": 4114,
      "izing": 4115,
      "Ġsignal": 4116,
      "Ġbelieved": 4117,
      "flow": 4118,
      "Ġtex": 4119,
      "Ġ\"@": 4120,
      "Ġknew": 4121,
      "Ġchann": 4122,
      "itation": 4123,
      "Ġbring": 4124,
      "unc": 4125,
      "fficient": 4126,
      ".'": 4127,
      "foo": 4128,
      "Ġcaused": 4129,
      "Ġhusband": 4130,
      "Ġmode": 4131,
      "Ġbritain": 4132,
      "assertequal": 4133,
      "utions": 4134,
      "Ġwriter": 4135,
      "items": 4136,
      "Ġdesigned": 4137,
      "decl": 4138,
      "\").": 4139,
      "Ġmotor": 4140,
      "orage": 4141,
      "Ġbasis": 4142,
      "Ġbillion": 4143,
      "ulate": 4144,
      "Ġcommercial": 4145,
      "Ġwhy": 4146,
      "Ġ1994": 4147,
      "Ġcopyright": 4148,
      "Ġdirectly": 4149,
      "Ġcele": 4150,
      "Ġguard": 4151,
      "Ġsin": 4152,
      "igation": 4153,
      "Ġhighest": 4154,
      "Ġconduct": 4155,
      "Ġdiscuss": 4156,
      "Ġreligion": 4157,
      "Ġidea": 4158,
      "Ġthy": 4159,
      "Ġcover": 4160,
      "Ġfs": 4161,
      "Ġ1993": 4162,
      "Ġbes": 4163,
      "Ġcab": 4164,
      "null": 4165,
      "Ġdial": 4166,
      "Ġris": 4167,
      "Åį": 4168,
      "using": 4169,
      "Ġparticip": 4170,
      "Ġfell": 4171,
      "throp": 4172,
      "istics": 4173,
      "chen": 4174,
      "await": 4175,
      "Ġmajority": 4176,
      "panic": 4177,
      "uction": 4178,
      "Ġ{\"": 4179,
      "uge": 4180,
      "Ġshows": 4181,
      "Ġgraph": 4182,
      "Ġ1997": 4183,
      "Ġslow": 4184,
      "Ġens": 4185,
      "rigger": 4186,
      "Ġcarry": 4187,
      "iences": 4188,
      "Ġreferred": 4189,
      "Ġsurround": 4190,
      "where": 4191,
      "ua": 4192,
      "Ġseat": 4193,
      "stream": 4194,
      "Ġlaws": 4195,
      "oe": 4196,
      "Ġcandid": 4197,
      "template": 4198,
      "ging": 4199,
      "uter": 4200,
      "iles": 4201,
      "bra": 4202,
      "Ġlicens": 4203,
      "Ġclimate": 4204,
      "Ġeditor": 4205,
      "tag": 4206,
      "local": 4207,
      "Ġflag": 4208,
      "Ġmagaz": 4209,
      "service": 4210,
      "aset": 4211,
      "ona": 4212,
      "Ġsimple": 4213,
      "Ġdensity": 4214,
      "Ġclassname": 4215,
      "Ġhung": 4216,
      "Ġearlier": 4217,
      "Ġprec": 4218,
      "Ġvolume": 4219,
      "ener": 4220,
      "after": 4221,
      "custom": 4222,
      "ishop": 4223,
      "aker": 4224,
      "Ġurban": 4225,
      "Ġult": 4226,
      "ls": 4227,
      "cles": 4228,
      "Ġrunning": 4229,
      "imum": 4230,
      "##": 4231,
      "Ġiron": 4232,
      "nam": 4233,
      "Ġargs": 4234,
      "Ġspain": 4235,
      "ett": 4236,
      "Ġtypically": 4237,
      "Ġlarger": 4238,
      "Ġshown": 4239,
      "atively": 4240,
      "Ġcer": 4241,
      "Ġlady": 4242,
      "Ġstated": 4243,
      "tab": 4244,
      "rents": 4245,
      "Ġincrease": 4246,
      "Ġstone": 4247,
      "ĠÂ": 4248,
      "Ġprotest": 4249,
      "Ġrussia": 4250,
      "Ġagreed": 4251,
      "Ġcontroll": 4252,
      "Ġdir": 4253,
      "Ġchampions": 4254,
      "Ġmaster": 4255,
      "igration": 4256,
      "fect": 4257,
      "oped": 4258,
      "Ġimplement": 4259,
      "Ġcart": 4260,
      "Ġobserv": 4261,
      "Ġincreasing": 4262,
      "Ġadj": 4263,
      "nel": 4264,
      "haps": 4265,
      "heast": 4266,
      "Ġconflict": 4267,
      "Ġ1995": 4268,
      "Ġvictor": 4269,
      "ded": 4270,
      "Ġcontains": 4271,
      "Ġglass": 4272,
      "Ġsens": 4273,
      "Ġsupported": 4274,
      "isions": 4275,
      "cel": 4276,
      "Ġdefined": 4277,
      "Ġdutch": 4278,
      "Ġcultural": 4279,
      "Ġinterpre": 4280,
      "Ġdipl": 4281,
      "xy": 4282,
      "hi": 4283,
      "Ġfinanc": 4284,
      "next": 4285,
      "Ġhook": 4286,
      "Ġobser": 4287,
      "oration": 4288,
      "Ġera": 4289,
      "Ġswe": 4290,
      "yles": 4291,
      "Ġspread": 4292,
      "tim": 4293,
      "andbox": 4294,
      "ĪĴ": 4295,
      "ny": 4296,
      "cc": 4297,
      "orig": 4298,
      "'m": 4299,
      "aration": 4300,
      "mary": 4301,
      "container": 4302,
      "Ġmonth": 4303,
      "Ġmyth": 4304,
      "Ġpun": 4305,
      "Ġitems": 4306,
      "keys": 4307,
      "Ġpractice": 4308,
      "Ġselected": 4309,
      "Ġbehav": 4310,
      "Ġarts": 4311,
      "));": 4312,
      "Ġbeaut": 4313,
      "Ġkit": 4314,
      "oms": 4315,
      "Ġarticle": 4316,
      "Ġdomin": 4317,
      "Ġoly": 4318,
      "ider": 4319,
      "Ġsec": 4320,
      "Ġindependence": 4321,
      "sed": 4322,
      "Ġracial": 4323,
      "Ġmusical": 4324,
      "Ġmemory": 4325,
      "dated": 4326,
      ")}": 4327,
      "ida": 4328,
      "Ġremains": 4329,
      "Ġjewish": 4330,
      "Ġmut": 4331,
      "Ġmont": 4332,
      "Ġsports": 4333,
      "Ġsquare": 4334,
      "Ġprison": 4335,
      "Ġreference": 4336,
      "Ã¨": 4337,
      "bt": 4338,
      "Ġirish": 4339,
      "ada": 4340,
      "Ġpra": 4341,
      "500": 4342,
      "publ": 4343,
      "Ġlikely": 4344,
      "Ġinj": 4345,
      "Ġmit": 4346,
      "tw": 4347,
      "itan": 4348,
      "Ġphysical": 4349,
      "Ġmorn": 4350,
      "Ġnearly": 4351,
      "Ġelectric": 4352,
      "Ġtv": 4353,
      "Ġreplaced": 4354,
      "Ġolymp": 4355,
      "Ġcelebr": 4356,
      "Ġmov": 4357,
      "cat": 4358,
      "ena": 4359,
      "Ġinstitute": 4360,
      "bind": 4361,
      "Ġinn": 4362,
      "uan": 4363,
      "reng": 4364,
      "Ġ80": 4365,
      "Ġproperties": 4366,
      "Ġequal": 4367,
      "oot": 4368,
      "Ġtheme": 4369,
      "iled": 4370,
      "Ġquant": 4371,
      "mem": 4372,
      "Ġdise": 4373,
      "Ġraces": 4374,
      "Ġchall": 4375,
      "Ġedward": 4376,
      "Ġcontinu": 4377,
      "uries": 4378,
      "Ġplann": 4379,
      "Ġbott": 4380,
      "Ġjoseph": 4381,
      "Ġtom": 4382,
      "Ġupper": 4383,
      "ĠâĢ": 4384,
      "Ġissue": 4385,
      "Ġweb": 4386,
      "Ġplaced": 4387,
      "dec": 4388,
      "when": 4389,
      "Ġna": 4390,
      "role": 4391,
      "Ġdiplom": 4392,
      "Ġpicture": 4393,
      "Ġ1989": 4394,
      "rows": 4395,
      "cing": 4396,
      "Ġreser": 4397,
      "Ġbear": 4398,
      "Ġtou": 4399,
      "Ġdra": 4400,
      "Ġtal": 4401,
      "cop": 4402,
      "Ġisl": 4403,
      "Ġrules": 4404,
      "Ġliterature": 4405,
      "Ġspeed": 4406,
      "Ġawards": 4407,
      "Ġbey": 4408,
      "Ġeffects": 4409,
      "Ġsense": 4410,
      "Ġrecent": 4411,
      "Ġkar": 4412,
      "Ġstrateg": 4413,
      "Ġasia": 4414,
      "Ġmakes": 4415,
      "Ġserver": 4416,
      "Ġauthority": 4417,
      "Ġquite": 4418,
      "Ġcomment": 4419,
      "Ġiconname": 4420,
      "Ġprem": 4421,
      "Ġlatter": 4422,
      "Ġchair": 4423,
      "aled": 4424,
      "Ġhonor": 4425,
      "())": 4426,
      "ali": 4427,
      "Ġhistoric": 4428,
      "Ġclean": 4429,
      "Ġbeach": 4430,
      "Ġavoid": 4431,
      "acity": 4432,
      "sn": 4433,
      "Ġhours": 4434,
      "Ã¤": 4435,
      "Ġcommitte": 4436,
      "asons": 4437,
      "xx": 4438,
      "Ġtoward": 4439,
      "actions": 4440,
      "suc": 4441,
      "olf": 4442,
      "effect": 4443,
      "Ġproposed": 4444,
      "Ġcarol": 4445,
      "Ġmanagement": 4446,
      "ients": 4447,
      "Ġnavy": 4448,
      "Ġrepublican": 4449,
      "Ġcontem": 4450,
      "Ġwide": 4451,
      "Ġindustrial": 4452,
      "ef": 4453,
      "Ġcompanies": 4454,
      "aud": 4455,
      "Ġresist": 4456,
      "Ġts": 4457,
      "aude": 4458,
      "method": 4459,
      "Ġwebs": 4460,
      "level": 4461,
      "ansas": 4462,
      "eries": 4463,
      "idx": 4464,
      "Ġbit": 4465,
      "Ġdouble": 4466,
      "Ġire": 4467,
      "rupt": 4468,
      "build": 4469,
      "Ġbell": 4470,
      "Ġaffect": 4471,
      "Ġlie": 4472,
      "Ġtrees": 4473,
      "Ġmention": 4474,
      "Ġcarried": 4475,
      "Ġmi": 4476,
      "Ġfear": 4477,
      "greg": 4478,
      "Ġ179": 4479,
      "Ġmeasure": 4480,
      "Ġtennis": 4481,
      "Ġoxford": 4482,
      "Ġproduce": 4483,
      "================": 4484,
      "Ġarms": 4485,
      "Ġrot": 4486,
      "Ġ44": 4487,
      "Ġreflect": 4488,
      "Ġreturns": 4489,
      "Ġentry": 4490,
      "rd": 4491,
      "Ġyellow": 4492,
      "Ġvillage": 4493,
      "Ġrepe": 4494,
      "Ġcommunities": 4495,
      "find": 4496,
      "ola": 4497,
      "Ġjes": 4498,
      "Ġveh": 4499,
      "Ġ1950": 4500,
      "Ġduke": 4501,
      "Ġtreaty": 4502,
      "Ġlif": 4503,
      "Ġhero": 4504,
      "imal": 4505,
      "Ġchic": 4506,
      "pers": 4507,
      "ounts": 4508,
      "encies": 4509,
      "Ġoh": 4510,
      "ested": 4511,
      "Ġheavy": 4512,
      "Ġil": 4513,
      "Ġscot": 4514,
      "Ġnumerous": 4515,
      "ey": 4516,
      "Ġknowledge": 4517,
      "ÉµÉµ": 4518,
      "aska": 4519,
      "Ġmetal": 4520,
      "\",\"": 4521,
      "Ġcompar": 4522,
      "Ġtwent": 4523,
      "Ġproducts": 4524,
      "ĊĊĠĠĠĠĠĠĠĠĠĠĠ": 4525,
      "Ġwinter": 4526,
      "Ġbath": 4527,
      "Ġsky": 4528,
      "Ġrose": 4529,
      "header": 4530,
      "Ġenter": 4531,
      "Ġsaying": 4532,
      "objects": 4533,
      "Ġfreed": 4534,
      "Ġthreat": 4535,
      "Ġwatch": 4536,
      "âĢĻ": 4537,
      "Ġireland": 4538,
      "Ġdiscovered": 4539,
      "eters": 4540,
      "gar": 4541,
      "oken": 4542,
      "Ġhur": 4543,
      "Ġdatabase": 4544,
      "inject": 4545,
      "Ġmarriage": 4546,
      "tohavebe": 4547,
      "Ġic": 4548,
      "fall": 4549,
      "Ġmedical": 4550,
      "cons": 4551,
      "Ġpoly": 4552,
      "Ġmorning": 4553,
      "Ġdigital": 4554,
      "Ġparent": 4555,
      "Ġanalysis": 4556,
      "Ġsuccessful": 4557,
      "claim": 4558,
      "rich": 4559,
      "Ġapache": 4560,
      "Ġcitiz": 4561,
      "Ġjoin": 4562,
      "Ġclosed": 4563,
      "Ġleave": 4564,
      "Ġdemon": 4565,
      "Ġfriends": 4566,
      "Ġcook": 4567,
      "ellig": 4568,
      "Ġautom": 4569,
      "Ġtexas": 4570,
      "writer": 4571,
      "exp": 4572,
      "Ġcold": 4573,
      "Ġweap": 4574,
      "Ġreject": 4575,
      "ements": 4576,
      "Ġrain": 4577,
      "Ġtroops": 4578,
      "Ġfixture": 4579,
      "Ġmostly": 4580,
      "Ġholy": 4581,
      "Ġdirection": 4582,
      "Ġcham": 4583,
      "Ġstreng": 4584,
      "Ġfestival": 4585,
      "Ġworked": 4586,
      "Ġpick": 4587,
      "Ġbelieve": 4588,
      "Ġcas": 4589,
      "Ġbroadcast": 4590,
      "Ġstood": 4591,
      "Ġpil": 4592,
      "Ġhosp": 4593,
      "Ð°": 4594,
      "Ġmoon": 4595,
      "oud": 4596,
      "mal": 4597,
      "Ġkh": 4598,
      "Ġmanager": 4599,
      "Ġmexico": 4600,
      "aging": 4601,
      "Ġnuclear": 4602,
      "ĠÃ": 4603,
      "Ġinterface": 4604,
      "Ġstore": 4605,
      "Ġmedic": 4606,
      "')).": 4607,
      "Ġvirginia": 4608,
      "cap": 4609,
      "Ġexport": 4610,
      "izes": 4611,
      "what": 4612,
      "Ġded": 4613,
      "()).": 4614,
      "Ġcounties": 4615,
      "Ġinsp": 4616,
      "Ġregional": 4617,
      "Ġperformed": 4618,
      "Ġhab": 4619,
      "Ġreadonly": 4620,
      "Ġsaf": 4621,
      "'ve": 4622,
      "more": 4623,
      "Ġcrow": 4624,
      "Ġbuildings": 4625,
      "Ġdetect": 4626,
      "Ġdeaths": 4627,
      "Ġsettlement": 4628,
      "Ġluc": 4629,
      "oman": 4630,
      "encalled": 4631,
      "Ġcorpor": 4632,
      "bas": 4633,
      "some": 4634,
      "Ġprofessional": 4635,
      "Ġpolitics": 4636,
      "Ġproblem": 4637,
      "Ġalt": 4638,
      "selector": 4639,
      "house": 4640,
      "Ġmulti": 4641,
      "Ġstories": 4642,
      "Ġ33": 4643,
      "Ġcontract": 4644,
      "Ġbeyond": 4645,
      "Ġconstruct": 4646,
      "Ġdynast": 4647,
      "Ġtheatre": 4648,
      "Ġexpression": 4649,
      "Ġcho": 4650,
      "#_": 4651,
      "rative": 4652,
      "uid": 4653,
      "Ġhighway": 4654,
      "bell": 4655,
      "tohavebeencalled": 4656,
      "\\`": 4657,
      "match": 4658,
      "Ġplatform": 4659,
      "ado": 4660,
      "property": 4661,
      "Ġ_#_": 4662,
      "iana": 4663,
      "Ġib": 4664,
      "Ġembassy": 4665,
      "Ġcorrespon": 4666,
      "plan": 4667,
      "Ġinvolved": 4668,
      "Ġwanted": 4669,
      "Ġletters": 4670,
      "norm": 4671,
      "Ġpope": 4672,
      ">;": 4673,
      "resolve": 4674,
      "Ġstream": 4675,
      "ki": 4676,
      "Ġbil": 4677,
      "Ġseparate": 4678,
      "Ġupdate": 4679,
      "Ġissues": 4680,
      "Ġepisode": 4681,
      "Ġsure": 4682,
      "rief": 4683,
      "Ġpolish": 4684,
      "Ġcommonly": 4685,
      "Ġsilver": 4686,
      "onic": 4687,
      "Ġ[],": 4688,
      "Ġclassical": 4689,
      "prec": 4690,
      "Ġcompl": 4691,
      "Ġwars": 4692,
      "itar": 4693,
      "Ġtraining": 4694,
      "Ġstatic": 4695,
      "Ġ1988": 4696,
      "Ġtrust": 4697,
      "Ġappears": 4698,
      "Ġmagazine": 4699,
      "Ġperhaps": 4700,
      "Ġdevice": 4701,
      "Ġsays": 4702,
      "Ġwriters": 4703,
      "df": 4704,
      "ulf": 4705,
      "Ġvote": 4706,
      "Ġapproximately": 4707,
      "cls": 4708,
      "reason": 4709,
      "Ġfigure": 4710,
      "struct": 4711,
      "Ġforward": 4712,
      "Ġsuit": 4713,
      "sa": 4714,
      "tona": 4715,
      "Ġcaptain": 4716,
      "ulations": 4717,
      "Ġnotable": 4718,
      "Ġcorrect": 4719,
      "300": 4720,
      "Ġherself": 4721,
      "main": 4722,
      "Ġdepict": 4723,
      "tered": 4724,
      "Ġexperience": 4725,
      "Ġshar": 4726,
      "Ġgrass": 4727,
      "Ġphilip": 4728,
      "Ġwel": 4729,
      "example": 4730,
      "allow": 4731,
      "Ġvariety": 4732,
      "Ġconnection": 4733,
      "show": 4734,
      "Ġgeorg": 4735,
      "Ġpressure": 4736,
      "oding": 4737,
      "isation": 4738,
      "Ġscientific": 4739,
      "ano": 4740,
      "anta": 4741,
      "ette": 4742,
      "Ġcoming": 4743,
      "rics": 4744,
      "Ġcommittee": 4745,
      "Ġll": 4746,
      "Ġjoined": 4747,
      "Ġportug": 4748,
      "Ġmob": 4749,
      "Ġconver": 4750,
      "inner": 4751,
      "Ġtab": 4752,
      "Ġwidely": 4753,
      "arm": 4754,
      "Ġstock": 4755,
      "www": 4756,
      "aped": 4757,
      "isf": 4758,
      "och": 4759,
      "Ġconsole": 4760,
      "Ġhttps": 4761,
      "term": 4762,
      "Ġschema": 4763,
      "ibly": 4764,
      "Ġvon": 4765,
      "Ġanything": 4766,
      "Ġmartin": 4767,
      "Ġequip": 4768,
      "Ġcovered": 4769,
      "Ġsmaller": 4770,
      "Ġ\"../": 4771,
      "Ġparties": 4772,
      "Ġthee": 4773,
      "iform": 4774,
      "Ġol": 4775,
      "Ġmachine": 4776,
      "aches": 4777,
      "Ġannual": 4778,
      "organization": 4779,
      "Ġtakes": 4780,
      "Ġdistinct": 4781,
      "clos": 4782,
      "Ġprovider": 4783,
      "Ġtemperature": 4784,
      "Ġrapid": 4785,
      "Ġhydro": 4786,
      "langu": 4787,
      "enth": 4788,
      "exist": 4789,
      "Ġdistance": 4790,
      "Ġfourth": 4791,
      "Ġscene": 4792,
      "Ġexisting": 4793,
      "fields": 4794,
      "izations": 4795,
      "Ġsigned": 4796,
      "Ġforced": 4797,
      "Ġchicago": 4798,
      "delete": 4799,
      "Ġpenn": 4800,
      "Ġlu": 4801,
      "Ġimperial": 4802,
      "Ġice": 4803,
      "Ġameric": 4804,
      "Ġstay": 4805,
      "Ġtoken": 4806,
      "editor": 4807,
      "Ġpreser": 4808,
      "fol": 4809,
      "Ġfat": 4810,
      "wise": 4811,
      "Ġ\"./": 4812,
      "Ġremoved": 4813,
      "umed": 4814,
      "icks": 4815,
      "Ġassembly": 4816,
      "Ġdress": 4817,
      "gl": 4818,
      "Ġbat": 4819,
      "record": 4820,
      "sign": 4821,
      "Ġ{},": 4822,
      "Ġintellig": 4823,
      "Ġ\"\\": 4824,
      "eless": 4825,
      "Ġconference": 4826,
      "Ġdefinition": 4827,
      "Ġadministration": 4828,
      "Ġfinancial": 4829,
      "messages": 4830,
      "Ġmathemat": 4831,
      "Ġanimals": 4832,
      "mas": 4833,
      "success": 4834,
      "Ġcore": 4835,
      "Ġ[{": 4836,
      "wd": 4837,
      "Ġsoul": 4838,
      "Ġmethods": 4839,
      "Ġdefense": 4840,
      "Ġagreement": 4841,
      "Ġ).": 4842,
      "Ġexamples": 4843,
      "Ġexhib": 4844,
      "Ġ1986": 4845,
      "ounds": 4846,
      "Ġflor": 4847,
      "Ġinternal": 4848,
      "Ġprovince": 4849,
      "jan": 4850,
      "Ġwr": 4851,
      "sql": 4852,
      "Ġrailway": 4853,
      "gem": 4854,
      "essions": 4855,
      "iting": 4856,
      "Ġraw": 4857,
      "second": 4858,
      "Ġalexander": 4859,
      "Ġbrand": 4860,
      "Ġkept": 4861,
      "Ġinitially": 4862,
      "Ġexperiment": 4863,
      "Ġfaith": 4864,
      "Ġadop": 4865,
      "Ġdecided": 4866,
      "alle": 4867,
      "Ġweight": 4868,
      "Ġspect": 4869,
      "Ġ``": 4870,
      "Ġ48": 4871,
      "ening": 4872,
      "ĠÐ": 4873,
      "Ġlarg": 4874,
      "Ġpit": 4875,
      "Ġpresence": 4876,
      "}>": 4877,
      "Ġcrown": 4878,
      "het": 4879,
      "factory": 4880,
      "Ġwis": 4881,
      "Ġprobably": 4882,
      "Ġhear": 4883,
      "Ġobjects": 4884,
      "ceeded": 4885,
      "Ġregions": 4886,
      "gg": 4887,
      "Ġfunctions": 4888,
      "Ġstarting": 4889,
      "Ġshot": 4890,
      "Ġsandbox": 4891,
      "Ġgolden": 4892,
      "common": 4893,
      "rast": 4894,
      "Ġstrict": 4895,
      "typeof": 4896,
      "Ġpreviously": 4897,
      "Ġshare": 4898,
      "Ġextension": 4899,
      "Ġchapter": 4900,
      "sum": 4901,
      "Ġexact": 4902,
      "clus": 4903,
      "missions": 4904,
      "Ġships": 4905,
      "Ġwindows": 4906,
      "Ġappointed": 4907,
      "Ġrise": 4908,
      "Ġelections": 4909,
      "bury": 4910,
      "Ġrecon": 4911,
      "ÅĤ": 4912,
      "Ġlargely": 4913,
      "Ġhope": 4914,
      "lat": 4915,
      "\"\"\"": 4916,
      "rid": 4917,
      "Ġvirt": 4918,
      "Ġchemical": 4919,
      "Ġast": 4920,
      "hens": 4921,
      "Ġtun": 4922,
      "Ġreplace": 4923,
      "kin": 4924,
      "wide": 4925,
      "illa": 4926,
      "yer": 4927,
      "Ġmurder": 4928,
      "ango": 4929,
      "Ġdivided": 4930,
      "ropol": 4931,
      "rant": 4932,
      "gers": 4933,
      "anim": 4934,
      "Ġoverride": 4935,
      "Ġdirectory": 4936,
      "Ġmountains": 4937,
      "Ġwalking": 4938,
      "Ġjac": 4939,
      "history": 4940,
      "Ġnic": 4941,
      "Ġbasic": 4942,
      "Ġactivity": 4943,
      "Ġpriest": 4944,
      "parse": 4945,
      "Ġclaimed": 4946,
      "Ġnecessary": 4947,
      "Ġmunic": 4948,
      "Ġrepresented": 4949,
      "range": 4950,
      "Ġcambridge": 4951,
      "Ġresources": 4952,
      "Ġfeet": 4953,
      "Ġriding": 4954,
      "Ġ1987": 4955,
      "hr": 4956,
      "Ġartists": 4957,
      "Ġalg": 4958,
      "frame": 4959,
      "Ġentered": 4960,
      "Ġprin": 4961,
      "Ġestimated": 4962,
      "Ġwave": 4963,
      "astic": 4964,
      "native": 4965,
      "Ġcoal": 4966,
      "Ġ1984": 4967,
      "ils": 4968,
      "access": 4969,
      "Ġfiction": 4970,
      "Ġtemple": 4971,
      "Ġtu": 4972,
      "aa": 4973,
      "rey": 4974,
      "mitted": 4975,
      "Ġneeded": 4976,
      "Ġbib": 4977,
      "values": 4978,
      "Ġskill": 4979,
      "mann": 4980,
      "inte": 4981,
      "Ġvoc": 4982,
      "Ġ42": 4983,
      "Ġinvent": 4984,
      "cs": 4985,
      "attr": 4986,
      "meta": 4987,
      "Ġsomeone": 4988,
      "iling": 4989,
      "ros": 4990,
      "Ġchampionship": 4991,
      "Ġjustice": 4992,
      "Ġapplied": 4993,
      "len": 4994,
      "Ġstars": 4995,
      "ety": 4996,
      "Ġcache": 4997,
      "Ġtar": 4998,
      "ologist": 4999,
      "gment": 5000,
      "Ġcolumb": 5001,
      ".\",": 5002,
      "rency": 5003,
      "Ġangeles": 5004,
      "Ġ36": 5005,
      "Ġresolve": 5006,
      "`)": 5007,
      "force": 5008,
      "orporated": 5009,
      "Ġcouple": 5010,
      "graph": 5011,
      "spap": 5012,
      "Ġregarding": 5013,
      ",'": 5014,
      "aded": 5015,
      "enabled": 5016,
      "Ġ1985": 5017,
      "mo": 5018,
      "Ġcamer": 5019,
      "isters": 5020,
      "onia": 5021,
      "Ġbure": 5022,
      "iger": 5023,
      "Ġproblems": 5024,
      "Ġbecomes": 5025,
      "sandbox": 5026,
      "Ġexchange": 5027,
      "Ġtimeout": 5028,
      "yes": 5029,
      "Ġfarm": 5030,
      "Ġdemonstr": 5031,
      "under": 5032,
      "Ġ34": 5033,
      "Ġdirected": 5034,
      "rif": 5035,
      "life": 5036,
      "Ġastr": 5037,
      "Ġnine": 5038,
      "zil": 5039,
      "Ġrand": 5040,
      "aily": 5041,
      "opher": 5042,
      "Ġslight": 5043,
      "aland": 5044,
      "Ġannot": 5045,
      "Ġbudd": 5046,
      "Ġarrang": 5047,
      "Ġprovides": 5048,
      "hat": 5049,
      "Ġadopted": 5050,
      "Ġinternet": 5051,
      "'re": 5052,
      "Ġended": 5053,
      "Ġviet": 5054,
      "Ġzone": 5055,
      "which": 5056,
      "Ġruns": 5057,
      "Ġscale": 5058,
      "Ġ[];": 5059,
      "quar": 5060,
      "Ġdecision": 5061,
      "Ġlevels": 5062,
      "Ġdistribution": 5063,
      "workspace": 5064,
      "ella": 5065,
      "pay": 5066,
      "Ġfish": 5067,
      "rier": 5068,
      "Ġsongs": 5069,
      "Ġfamous": 5070,
      "selected": 5071,
      "Ġreign": 5072,
      "Ġacademic": 5073,
      "Ġstaff": 5074,
      "cript": 5075,
      "Ġinterview": 5076,
      "Ġspeech": 5077,
      "Ġdar": 5078,
      "Ġrare": 5079,
      "Ġpromin": 5080,
      "inking": 5081,
      "total": 5082,
      "Ġcra": 5083,
      "Ġnewspap": 5084,
      "Ġpoland": 5085,
      "sessionid": 5086,
      "iring": 5087,
      "Ġamount": 5088,
      "rated": 5089,
      "Ġhighly": 5090,
      "uce": 5091,
      "Ġexception": 5092,
      "flo": 5093,
      "je": 5094,
      "cycl": 5095,
      "Ġtowns": 5096,
      "Ġdeclared": 5097,
      "Ġmotion": 5098,
      "Ġimmediately": 5099,
      "ador": 5100,
      "Ġsoldiers": 5101,
      "ees": 5102,
      "Ġbol": 5103,
      "Ġslo": 5104,
      "bi": 5105,
      "Ġ1979": 5106,
      "Ġreve": 5107,
      "Ġsister": 5108,
      "Ġhair": 5109,
      "uted": 5110,
      "Ġoccupied": 5111,
      "Ġchannel": 5112,
      "Ġproducer": 5113,
      "Ġjean": 5114,
      "cmp": 5115,
      "Ġillust": 5116,
      "Ġbon": 5117,
      "eks": 5118,
      "iced": 5119,
      "Ġextract": 5120,
      "Ġmount": 5121,
      "his": 5122,
      "Ġbind": 5123,
      "Ġimpact": 5124,
      "inger": 5125,
      "Ġphilosophy": 5126,
      "Ġabsol": 5127,
      "Ġbod": 5128,
      "directory": 5129,
      "Ġcompared": 5130,
      "Ġcreation": 5131,
      "lar": 5132,
      "Ġbern": 5133,
      "usal": 5134,
      "Ġsuggested": 5135,
      "Ġwebsite": 5136,
      "Ġho": 5137,
      "Ð¾": 5138,
      "section": 5139,
      "cluded": 5140,
      "}}": 5141,
      "controll": 5142,
      "Ġpurch": 5143,
      "Ġ37": 5144,
      "Ġpowers": 5145,
      "how": 5146,
      "mcp": 5147,
      "Ġdoctor": 5148,
      "Ġguitar": 5149,
      "aq": 5150,
      "zo": 5151,
      "each": 5152,
      "Ġraise": 5153,
      "Ġmagn": 5154,
      "Ġrang": 5155,
      "Ġmeeting": 5156,
      "Ġenem": 5157,
      "Ġsurf": 5158,
      "Ġconcent": 5159,
      "changes": 5160,
      "Ġcenturies": 5161,
      "Ġdrug": 5162,
      "Ġram": 5163,
      "Ġinject": 5164,
      "Ġartist": 5165,
      "icated": 5166,
      "Ġaim": 5167,
      "Ġimag": 5168,
      "Ġquickly": 5169,
      "skill": 5170,
      "Ġ1983": 5171,
      "logger": 5172,
      "Ġprize": 5173,
      "Ġ1982": 5174,
      "Ġiran": 5175,
      "ares": 5176,
      "includes": 5177,
      "Ġperman": 5178,
      "inem": 5179,
      "iful": 5180,
      "Ġpotential": 5181,
      "Ġmuslim": 5182,
      "react": 5183,
      "Ġnoted": 5184,
      "ato": 5185,
      "Ġwonder": 5186,
      "Ġtower": 5187,
      "Ġremaining": 5188,
      "Ġapproach": 5189,
      "Ġprep": 5190,
      "Ġclock": 5191,
      "[];": 5192,
      "Ġ70": 5193,
      "Ġorth": 5194,
      "attribut": 5195,
      "Ġbeat": 5196,
      "undefined": 5197,
      "ifest": 5198,
      "Ġprofess": 5199,
      "Ġund": 5200,
      "Ġtranslation": 5201,
      "Ġdynasty": 5202,
      "Ġpoem": 5203,
      "properties": 5204,
      "Ġ1976": 5205,
      "ĊĊĠĠĠĠĠĠĠĠĠ": 5206,
      "window": 5207,
      "Ġpresidential": 5208,
      "calls": 5209,
      "Ġsetting": 5210,
      "Ġmu": 5211,
      "Ġgent": 5212,
      "Ġextended": 5213,
      "spe": 5214,
      "Ġacid": 5215,
      "Ġbenef": 5216,
      "Ġcree": 5217,
      "Ġath": 5218,
      "Ġcomes": 5219,
      "Ġknight": 5220,
      "Ġcastle": 5221,
      "Ġattention": 5222,
      "Ġring": 5223,
      "Ġtruth": 5224,
      "components": 5225,
      "Ġleaders": 5226,
      "Ġactions": 5227,
      "Ġ38": 5228,
      "Ġlot": 5229,
      "Ġadvent": 5230,
      "Ġcub": 5231,
      "Ġsecretary": 5232,
      "kind": 5233,
      "Ġflying": 5234,
      "Ġsudden": 5235,
      "Ġgone": 5236,
      "fin": 5237,
      "Ġ1975": 5238,
      "plicit": 5239,
      "append": 5240,
      "ieval": 5241,
      "Ġprimarily": 5242,
      "ura": 5243,
      "nor": 5244,
      "Ġsleep": 5245,
      "Ġstan": 5246,
      "town": 5247,
      "phas": 5248,
      "Ġanimal": 5249,
      "children": 5250,
      "Ġpleas": 5251,
      "asks": 5252,
      "Ġgate": 5253,
      "Ġconvention": 5254,
      "duce": 5255,
      "Ġconv": 5256,
      "Ġnam": 5257,
      "Ġfeatured": 5258,
      "Ġfocus": 5259,
      "Ġshowing": 5260,
      "Ġcomposition": 5261,
      "Ġcombined": 5262,
      "Ġ1940": 5263,
      "Ġcondition": 5264,
      "tmp": 5265,
      "Ġ__": 5266,
      "stein": 5267,
      "Ġinhab": 5268,
      "Ġintended": 5269,
      "anda": 5270,
      "Ġ1972": 5271,
      "Ġminutes": 5272,
      "cod": 5273,
      "rence": 5274,
      "lers": 5275,
      "lec": 5276,
      "Ġteams": 5277,
      "Ġimprove": 5278,
      "Ġ1981": 5279,
      "Ġcritical": 5280,
      "Ġ1968": 5281,
      "Ġhop": 5282,
      "opencode": 5283,
      "Ġplugin": 5284,
      "Ġcontrast": 5285,
      "Ġappearance": 5286,
      "Ġaccepted": 5287,
      "Ġvictory": 5288,
      "Ġnap": 5289,
      "Ġfloor": 5290,
      "ĠĠĠĠĠĠĠĠĠĠĠĠĠĠĠĠ": 5291,
      "tree": 5292,
      "Ġopening": 5293,
      "Ġbelong": 5294,
      "din": 5295,
      "Ġscope": 5296,
      "Ġmys": 5297,
      "Ġraised": 5298,
      "Ġexecutive": 5299,
      "Ġbrief": 5300,
      "plication": 5301,
      "abeth": 5302,
      "Ġ1930": 5303,
      "rical": 5304,
      "Ġunless": 5305,
      "Ġaccessed": 5306,
      "Ġtwenty": 5307,
      "icial": 5308,
      "Ġfavor": 5309,
      "Ġeye": 5310,
      "Ġunic": 5311,
      "@@": 5312,
      "Ġwit": 5313,
      "cred": 5314,
      "cr": 5315,
      "lv": 5316,
      "etic": 5317,
      "orph": 5318,
      "long": 5319,
      "Ġgiving": 5320,
      "Ġserve": 5321,
      "Ġ90": 5322,
      "Ġapplication": 5323,
      "Ġdisput": 5324,
      "Ġmarg": 5325,
      "Ġbecoming": 5326,
      "tip": 5327,
      "Ġfeed": 5328,
      "fam": 5329,
      "scale": 5330,
      "bro": 5331,
      "Ġsuperset": 5332,
      "tom": 5333,
      "venue": 5334,
      "Ġprograms": 5335,
      "Ġcarl": 5336,
      "Ġcrim": 5337,
      "Ġhospital": 5338,
      "Ġga": 5339,
      "Ġremember": 5340,
      "Ġheat": 5341,
      "Ġconsequ": 5342,
      "ocol": 5343,
      "ordin": 5344,
      "Ġpair": 5345,
      "uer": 5346,
      "Ġfreedom": 5347,
      "Ġlen": 5348,
      "Ġoffered": 5349,
      "Ġmort": 5350,
      "Ġparse": 5351,
      "Ġtag": 5352,
      "handler": 5353,
      "Ġsimply": 5354,
      "Ġplants": 5355,
      "ocket": 5356,
      "Ġdegree": 5357,
      "Ġhistorian": 5358,
      "Ġ178": 5359,
      "ithub": 5360,
      "Ġclaims": 5361,
      "Ġles": 5362,
      "browser": 5363,
      "empty": 5364,
      "replace": 5365,
      "eline": 5366,
      "Ġzealand": 5367,
      "Ġplain": 5368,
      "Ġancest": 5369,
      "Ġjersey": 5370,
      "Ġash": 5371,
      "asket": 5372,
      "estate": 5373,
      "Ġtall": 5374,
      "Ġpray": 5375,
      "Ġhyp": 5376,
      "sen": 5377,
      "Ġatom": 5378,
      "endar": 5379,
      "Ġott": 5380,
      "Ġoccurred": 5381,
      "lib": 5382,
      "obj": 5383,
      "Ġell": 5384,
      "Ġ1974": 5385,
      "Ġcitizens": 5386,
      "Ġdemand": 5387,
      "Ġstations": 5388,
      "Ġcontaining": 5389,
      "Ġmigr": 5390,
      "Ġflat": 5391,
      "Ġandro": 5392,
      "Ġsave": 5393,
      "Ġbomb": 5394,
      "git": 5395,
      "Ġpurpose": 5396,
      "Ġfellow": 5397,
      "center": 5398,
      "Ġmath": 5399,
      "Ġgrew": 5400,
      "Ġscholar": 5401,
      "amm": 5402,
      "Ġcooper": 5403,
      "='": 5404,
      "Ġcontemporary": 5405,
      "store": 5406,
      "Ġdj": 5407,
      "Ġleaving": 5408,
      "Ġtownship": 5409,
      "Ġscholars": 5410,
      "cell": 5411,
      "Ġhour": 5412,
      "adow": 5413,
      "Ġsessionid": 5414,
      "Ġofficer": 5415,
      "Ġ39": 5416,
      "Ġmist": 5417,
      "Ġpasseng": 5418,
      "Ġtried": 5419,
      "=_": 5420,
      "Ġms": 5421,
      "Ġdoing": 5422,
      "Ġsettings": 5423,
      "Ġjur": 5424,
      "admin": 5425,
      "awn": 5426,
      "expected": 5427,
      "Ġcontact": 5428,
      "Ġeld": 5429,
      "Ġremove": 5430,
      "Ġmouth": 5431,
      "Ġready": 5432,
      "Ġgreatest": 5433,
      "Ġbishop": 5434,
      "Ġreach": 5435,
      "Ġdisease": 5436,
      "Ġ**": 5437,
      "Ġeliz": 5438,
      "Ġlayer": 5439,
      "Ġ1969": 5440,
      "Ġtests": 5441,
      "system": 5442,
      "izer": 5443,
      "Ġ1973": 5444,
      "Ġresulting": 5445,
      "web": 5446,
      "Ġbrazil": 5447,
      "Ðµ": 5448,
      "dashboard": 5449,
      "Ġcru": 5450,
      "Ġbirths": 5451,
      "sis": 5452,
      "clear": 5453,
      "Ġlatino": 5454,
      "-.": 5455,
      "Ġ1967": 5456,
      "vgpath": 5457,
      "Ġcurrently": 5458,
      "las": 5459,
      "ograp": 5460,
      "Ġextends": 5461,
      "Ġhind": 5462,
      "zer": 5463,
      "Ġoppos": 5464,
      "Ġtreatment": 5465,
      "gian": 5466,
      "look": 5467,
      "wan": 5468,
      "Ġbond": 5469,
      "Ġshape": 5470,
      "Ġanton": 5471,
      "Ġreally": 5472,
      "estic": 5473,
      "liest": 5474,
      "Ġht": 5475,
      "vgpathdata": 5476,
      "Ġentertain": 5477,
      "pres": 5478,
      "Ġexpans": 5479,
      "aved": 5480,
      "ja": 5481,
      "Ġdry": 5482,
      "Ġjews": 5483,
      "Ġpalace": 5484,
      "Ġjob": 5485,
      "Ġsi": 5486,
      "Ġba": 5487,
      "Ġmarked": 5488,
      "Ġmedieval": 5489,
      "Ġscen": 5490,
      "Ġsons": 5491,
      "yr": 5492,
      "isms": 5493,
      "Ġpiece": 5494,
      "Ġcomposer": 5495,
      "mes": 5496,
      "Ġfrequently": 5497,
      "Ġdiction": 5498,
      "Ġsar": 5499,
      "rovers": 5500,
      "found": 5501,
      "Ġrelative": 5502,
      "Ġrural": 5503,
      "Ġquality": 5504,
      "rell": 5505,
      "Ġdaily": 5506,
      "othes": 5507,
      "Ġapart": 5508,
      "Ġemerg": 5509,
      "slice": 5510,
      "Ġsport": 5511,
      "Ġworkers": 5512,
      "Ġ1920": 5513,
      "ko": 5514,
      "sch": 5515,
      "sync": 5516,
      "Ã§": 5517,
      ".\"\"\"": 5518,
      "orter": 5519,
      "Ġobj": 5520,
      "Ġsupreme": 5521,
      "]]": 5522,
      "igen": 5523,
      "Ġselector": 5524,
      "Ġfilled": 5525,
      "initial": 5526,
      "Ġstad": 5527,
      "lem": 5528,
      "Ġeat": 5529,
      "Ġneither": 5530,
      "ĠÎ": 5531,
      "connect": 5532,
      "Ġshared": 5533,
      "Ġlaunched": 5534,
      "Ġlabour": 5535,
      "appro": 5536,
      "oo": 5537,
      "Ġ1978": 5538,
      "Ġquarter": 5539,
      "Ġscotland": 5540,
      "Ġrh": 5541,
      "atsby": 5542,
      "language": 5543,
      "kes": 5544,
      "Ġhouseholder": 5545,
      "Ġvo": 5546,
      "people": 5547,
      "Ġaspect": 5548,
      "tools": 5549,
      "bing": 5550,
      "Ġtools": 5551,
      "zen": 5552,
      "Ġbright": 5553,
      "Ġmainly": 5554,
      "Ġserious": 5555,
      "Ġalaska": 5556,
      "superset": 5557,
      "Ġalph": 5558,
      "Ġmeant": 5559,
      "Ġidentity": 5560,
      "Ġtheore": 5561,
      "Ġ1971": 5562,
      "Ġprotection": 5563,
      "cd": 5564,
      "Ġrisk": 5565,
      "Ġfixed": 5566,
      "Ġdb": 5567,
      "callback": 5568,
      "Ġ1945": 5569,
      "Ġhouses": 5570,
      "Ġbehavior": 5571,
      "Ġerrors": 5572,
      "1990": 5573,
      "Ġkings": 5574,
      "Ġfine": 5575,
      "Ġpartner": 5576,
      "iny": 5577,
      "Ġjim": 5578,
      "Ġuniform": 5579,
      "Ġ1964": 5580,
      "Ġcrime": 5581,
      "changed": 5582,
      "Ġterminal": 5583,
      "Ġcontrovers": 5584,
      "').": 5585,
      "ropolitan": 5586,
      "phone": 5587,
      "Ġskate": 5588,
      "Ġowner": 5589,
      "Ġaffairs": 5590,
      "Ġstudio": 5591,
      "Ġsend": 5592,
      "Ġactivities": 5593,
      "Ġark": 5594,
      "bus": 5595,
      "stack": 5596,
      "Ġ75": 5597,
      "Ġengineering": 5598,
      "Ġlee": 5599,
      "Ġunique": 5600,
      "Ġnotice": 5601,
      "Ġformal": 5602,
      "Ġ}}": 5603,
      "Ġobserved": 5604,
      "occ": 5605,
      "aly": 5606,
      "Ġgarden": 5607,
      "sim": 5608,
      "ani": 5609,
      "Ġbrowser": 5610,
      "ctr": 5611,
      "400": 5612,
      "Ġmarsh": 5613,
      "Ġstrip": 5614,
      "Ġhat": 5615,
      "Ġarmed": 5616,
      "Ġpresented": 5617,
      "Ġaid": 5618,
      "Ġjoint": 5619,
      "ographic": 5620,
      "print": 5621,
      "invalid": 5622,
      "related": 5623,
      "Ġfis": 5624,
      "rip": 5625,
      "Ġkitchen": 5626,
      "Ġsexual": 5627,
      "Ġdistingu": 5628,
      "poss": 5629,
      "Ġpositive": 5630,
      "Ġtraffic": 5631,
      "bal": 5632,
      "Ġdun": 5633,
      "tical": 5634,
      "menu": 5635,
      "ĊĠĠĠĠĠĠĠĠĠĠĠĠĠĠĠĠĠĠĠĠĠĠĠĠĠĠĠĠĠĠĠ": 5636,
      "Ġactual": 5637,
      "Ġmoving": 5638,
      "Ġaliases": 5639,
      "uls": 5640,
      "Ġwearing": 5641,
      "Ġhors": 5642,
      "Ġparams": 5643,
      "heme": 5644,
      "Ġyouth": 5645,
      "Ġstudent": 5646,
      "directive": 5647,
      "adding": 5648,
      "Ġthir": 5649,
      "Ġshell": 5650,
      "Ġ1977": 5651,
      "Ġdecor": 5652,
      "Ġimages": 5653,
      "Ġconnected": 5654,
      "umes": 5655,
      "alone": 5656,
      "teen": 5657,
      "Ġ'../../": 5658,
      "Ġru": 5659,
      "Ġcharge": 5660,
      "Ġnaz": 5661,
      "Ġpoll": 5662,
      "Ġoccasion": 5663,
      "otic": 5664,
      "Ġ49": 5665,
      "Ġmanner": 5666,
      "ounder": 5667,
      "Ġ;": 5668,
      "Ġshowed": 5669,
      "Ġdetails": 5670,
      "water": 5671,
      "mic": 5672,
      "Ġways": 5673,
      "ci": 5674,
      "Ġedge": 5675,
      "Ġlun": 5676,
      "Ġtill": 5677,
      "Ġmonarch": 5678,
      "Ġcells": 5679,
      "database": 5680,
      "Ġpret": 5681,
      "Ġpier": 5682,
      "Ġordered": 5683,
      "Ġindeed": 5684,
      "Ġoperating": 5685,
      "Ġdestroyed": 5686,
      "usage": 5687,
      "Ġcrew": 5688,
      "Ġmessages": 5689,
      "Ġcarbon": 5690,
      "Ġ1965": 5691,
      "Ġnether": 5692,
      "sex": 5693,
      "Ġsched": 5694,
      "Ġ`${": 5695,
      "Ġmodule": 5696,
      "ois": 5697,
      "Ġdoll": 5698,
      "Ġspent": 5699,
      "Ġmovie": 5700,
      "Ġsolid": 5701,
      "Ġplays": 5702,
      "250": 5703,
      "Ġgoogle": 5704,
      "axis": 5705,
      "Ġmaterials": 5706,
      "Ġprice": 5707,
      "Ġlives": 5708,
      "erc": 5709,
      "Ġstro": 5710,
      "Ġreduced": 5711,
      "Ġpurs": 5712,
      "Ġequival": 5713,
      "Ġscottish": 5714,
      "Ġcalls": 5715,
      "Ġsurvey": 5716,
      "ying": 5717,
      "Ġencycl": 5718,
      "display": 5719,
      "bound": 5720,
      "oral": 5721,
      "Ġfigures": 5722,
      "Ġsql": 5723,
      "Ð¸": 5724,
      "Ġsight": 5725,
      "Ġweeks": 5726,
      "Ġcontainer": 5727,
      "alias": 5728,
      "Ġdro": 5729,
      "Ġfolk": 5730,
      "oned": 5731,
      "iams": 5732,
      "Ġ\"/": 5733,
      "Ġideas": 5734,
      "shire": 5735,
      "Ġequipment": 5736,
      "Ġadvanced": 5737,
      "Ġcomposed": 5738,
      "Ġok": 5739,
      "obs": 5740,
      "icate": 5741,
      "Ġcos": 5742,
      "2000": 5743,
      "Ġbasket": 5744,
      "Ġgeneration": 5745,
      "home": 5746,
      "nav": 5747,
      "Ġfra": 5748,
      "Ġshel": 5749,
      "Ġdecre": 5750,
      "Ġrub": 5751,
      "Ġidentified": 5752,
      "Ġadapt": 5753,
      "inations": 5754,
      "Ġactually": 5755,
      "hum": 5756,
      "Ġnaval": 5757,
      "Ġpull": 5758,
      "Ġrough": 5759,
      "required": 5760,
      "Ġmolec": 5761,
      "Ġdanger": 5762,
      "close": 5763,
      "Ġperfect": 5764,
      "Ġgrowing": 5765,
      "Ġopposition": 5766,
      "joy": 5767,
      "\"))": 5768,
      "thur": 5769,
      "Ġearliest": 5770,
      "Ġcerem": 5771,
      "Ġachieve": 5772,
      "dist": 5773,
      "Ġhast": 5774,
      "Ġboat": 5775,
      "Ġintroduction": 5776,
      "Ġjeff": 5777,
      "Ġresponsible": 5778,
      "bec": 5779,
      "Ġfully": 5780,
      "Ġcaptured": 5781,
      "Ġgram": 5782,
      "zm": 5783,
      "Ġnoble": 5784,
      "zone": 5785,
      "there": 5786,
      "Ġ500": 5787,
      "world": 5788,
      "Ġatlantic": 5789,
      "Ġjohnson": 5790,
      "Ġbowl": 5791,
      "paths": 5792,
      "Ġcoach": 5793,
      "Ġcorner": 5794,
      "Ġsie": 5795,
      "Ġderived": 5796,
      "scious": 5797,
      "stra": 5798,
      "Ġgene": 5799,
      "Ġefforts": 5800,
      "Ġsel": 5801,
      "Ġtend": 5802,
      "Ġmyself": 5803,
      "stone": 5804,
      "Ġpropos": 5805,
      "ĊĊĉĉ": 5806,
      "Ġattract": 5807,
      "sem": 5808,
      "Ġagriculture": 5809,
      "Ġveget": 5810,
      "high": 5811,
      "irt": 5812,
      "Ġjudge": 5813,
      "mad": 5814,
      "Ġability": 5815,
      "Ġversions": 5816,
      "Ġjesus": 5817,
      "Ġevolution": 5818,
      "uri": 5819,
      "rix": 5820,
      "num": 5821,
      "Ġallows": 5822,
      "fc": 5823,
      "Ġgives": 5824,
      "Ġconsists": 5825,
      "Ġ1966": 5826,
      "buffer": 5827,
      "Ġfro": 5828,
      "Ġiniti": 5829,
      "Ġstrength": 5830,
      "Ġalbert": 5831,
      "bet": 5832,
      "Ġrelatively": 5833,
      "Ġexistence": 5834,
      "Ġguide": 5835,
      "Ġgeography": 5836,
      "Ġ43": 5837,
      "Ġemphas": 5838,
      "Ġopera": 5839,
      "Ġcarolina": 5840,
      "Ġworth": 5841,
      "Ġinstrument": 5842,
      "Ġadap": 5843,
      "lig": 5844,
      "Ġcomedy": 5845,
      "pending": 5846,
      "agan": 5847,
      "claude": 5848,
      ">,": 5849,
      "Ġtypeof": 5850,
      "Ġsenate": 5851,
      "fill": 5852,
      "Ġcod": 5853,
      "Ġprofessor": 5854,
      "Ġadvant": 5855,
      "iques": 5856,
      "Ġeverything": 5857,
      "ione": 5858,
      "Ġotherwise": 5859,
      "oston": 5860,
      "Ġcris": 5861,
      "Ġamericans": 5862,
      "Ġarchitecture": 5863,
      "Ġfresh": 5864,
      "aining": 5865,
      "Ġofficers": 5866,
      "netic": 5867,
      "Ġexpansion": 5868,
      "Ġkenn": 5869,
      "aret": 5870,
      "Ġpartial": 5871,
      "Ġarchae": 5872,
      "Ġrecognized": 5873,
      "Ġadult": 5874,
      "Ġintelligence": 5875,
      "Ġ41": 5876,
      "Ġstrugg": 5877,
      "author": 5878,
      "Ġbun": 5879,
      "ington": 5880,
      "extra": 5881,
      "contin": 5882,
      "Ġphase": 5883,
      "ski": 5884,
      "Ġinstall": 5885,
      "category": 5886,
      "Ġhispanic": 5887,
      "Ġmixed": 5888,
      "trim": 5889,
      "Ġheaders": 5890,
      "Ġcircum": 5891,
      "utf": 5892,
      "Ġuniversal": 5893,
      "pipe": 5894,
      "Ġther": 5895,
      "Ġmine": 5896,
      "Ġcow": 5897,
      "fetch": 5898,
      "Ġhorses": 5899,
      "Ġforth": 5900,
      "prim": 5901,
      "ora": 5902,
      "Ġmas": 5903,
      "Ġinfluenced": 5904,
      "kins": 5905,
      "Ġwa": 5906,
      "Ġliberal": 5907,
      "pet": 5908,
      "Ġdance": 5909,
      "Ġkorea": 5910,
      "two": 5911,
      "ien": 5912,
      "Ġetc": 5913,
      "Ġownership": 5914,
      "uated": 5915,
      "Ġturk": 5916,
      "Ġapplications": 5917,
      "Ġarrived": 5918,
      "Ġelizabeth": 5919,
      "zy": 5920,
      "weight": 5921,
      "Ġapply": 5922,
      "Ġ'/": 5923,
      "Ġhelped": 5924,
      "payload": 5925,
      "oren": 5926,
      "Ġharv": 5927,
      "cture": 5928,
      "%.": 5929,
      "Ġneighbor": 5930,
      "Ġdictionary": 5931,
      "Ġfailure": 5932,
      "Ġexpanded": 5933,
      "Ġdiplomatic": 5934,
      "Ġfreder": 5935,
      "Ġsplit": 5936,
      "2009": 5937,
      "Ġargued": 5938,
      "Ġbureau": 5939,
      "ala": 5940,
      "iler": 5941,
      "Ġpages": 5942,
      "Ġmand": 5943,
      "inity": 5944,
      "Ġ+=": 5945,
      "Ġpian": 5946,
      "Ġevening": 5947,
      "Ġweapons": 5948,
      "Ġcriminal": 5949,
      "rison": 5950,
      "Ġintel": 5951,
      "Ġsail": 5952,
      "à¤": 5953,
      "Ġusage": 5954,
      "Ġsets": 5955,
      "background": 5956,
      "Ġsites": 5957,
      "Ġarrest": 5958,
      "Ġsatisf": 5959,
      "extension": 5960,
      "Ġmiles": 5961,
      "Ġlegacy": 5962,
      "Ġuni": 5963,
      "Ġsupply": 5964,
      "mond": 5965,
      "worth": 5966,
      "Ġago": 5967,
      "('/": 5968,
      "metry": 5969,
      "engine": 5970,
      "Ġow": 5971,
      "Ġfrag": 5972,
      "Ġplans": 5973,
      "Ġdefeated": 5974,
      "Ġones": 5975,
      "Ġopin": 5976,
      "Ġcreek": 5977,
      "Ġrailroad": 5978,
      "Ġot": 5979,
      "bad": 5980,
      "gate": 5981,
      "acing": 5982,
      "Ġqual": 5983,
      "oured": 5984,
      "metric": 5985,
      "Ġsequence": 5986,
      "Ġicondefinition": 5987,
      "sd": 5988,
      "hentic": 5989,
      "Ġnetherlands": 5990,
      "Ġlegend": 5991,
      "wargs": 5992,
      "Ġfran": 5993,
      "Ġoverall": 5994,
      "Ġpermanent": 5995,
      "inian": 5996,
      "rist": 5997,
      "Ġnarrow": 5998,
      "plies": 5999,
      "Ġsteel": 6000,
      "pattern": 6001,
      "Ġkent": 6002,
      "Ġliterary": 6003,
      "saf": 6004,
      "Ġexists": 6005,
      "Ġbbc": 6006,
      "Ġbass": 6007,
      "Ġsafe": 6008,
      "Ġinterpret": 6009,
      "mult": 6010,
      "Ġfinished": 6011,
      "Ġ55": 6012,
      "before": 6013,
      "Ġmemorial": 6014,
      "lock": 6015,
      "Ġrepresentation": 6016,
      "otion": 6017,
      "Ġgam": 6018,
      "failed": 6019,
      "inn": 6020,
      "ushed": 6021,
      "Ġvice": 6022,
      "conf": 6023,
      "Ġdiam": 6024,
      "filesync": 6025,
      "Ġfleet": 6026,
      "Ġacts": 6027,
      "Ġformation": 6028,
      "Ġpublishing": 6029,
      "oring": 6030,
      "Ġscar": 6031,
      "avel": 6032,
      "Ġmentioned": 6033,
      "short": 6034,
      "Ġparents": 6035,
      "attle": 6036,
      "Ġgreece": 6037,
      "Ġrestrict": 6038,
      "Ġdomestic": 6039,
      "Ġpros": 6040,
      "prise": 6041,
      "Ġapparent": 6042,
      "Ġstraight": 6043,
      "Ġrecomm": 6044,
      "Ġeffective": 6045,
      "Ġresistance": 6046,
      "verty": 6047,
      "called": 6048,
      "igan": 6049,
      "uate": 6050,
      "filters": 6051,
      "Ġseems": 6052,
      "Ġcharl": 6053,
      "Ġparalle": 6054,
      "Ġstadium": 6055,
      "Ġalle": 6056,
      "Ġpeak": 6057,
      "Ġvisible": 6058,
      "claimed": 6059,
      "Ġmarine": 6060,
      "Ġgods": 6061,
      "deb": 6062,
      "oes": 6063,
      "osh": 6064,
      "Ġlock": 6065,
      "Ġerr": 6066,
      "rate": 6067,
      "handle": 6068,
      "Ġneut": 6069,
      "Ġframe": 6070,
      "Ġenvironmental": 6071,
      "iah": 6072,
      "Ġportion": 6073,
      "Ġchamber": 6074,
      "snapshot": 6075,
      "portun": 6076,
      "Ġmess": 6077,
      "uous": 6078,
      "Ġsituation": 6079,
      "orith": 6080,
      "Ġjones": 6081,
      "Ġgoal": 6082,
      "acter": 6083,
      "edit": 6084,
      "Ġfetch": 6085,
      "azz": 6086,
      "Ġhang": 6087,
      "Ġpaid": 6088,
      "Ġwithd": 6089,
      "asource": 6090,
      "Ġbutton": 6091,
      "ih": 6092,
      "github": 6093,
      "odox": 6094,
      "Ġdrive": 6095,
      "Ġencour": 6096,
      "Ġlit": 6097,
      "Ġcool": 6098,
      "Ġpak": 6099,
      "Ġlam": 6100,
      "Ġshut": 6101,
      "stop": 6102,
      "iments": 6103,
      "otes": 6104,
      "apping": 6105,
      "Ġ1963": 6106,
      "cursor": 6107,
      "Ġmetropolitan": 6108,
      "Ġissued": 6109,
      "Ġnegative": 6110,
      "Ġcomponents": 6111,
      "Ġdidn": 6112,
      "Ġberlin": 6113,
      "Ġsubsequent": 6114,
      "Ġprominent": 6115,
      "Ġsafety": 6116,
      "essed": 6117,
      "normal": 6118,
      "Ġbeautiful": 6119,
      "ava": 6120,
      "Ġnick": 6121,
      "Ġatm": 6122,
      "Ġunicode": 6123,
      "Ġreceive": 6124,
      ">(": 6125,
      "Ġviews": 6126,
      "osis": 6127,
      "Ġhay": 6128,
      "Ġpoverty": 6129,
      "Ġalternative": 6130,
      "Ġwine": 6131,
      "Ġrevol": 6132,
      "usted": 6133,
      "Ġconvers": 6134,
      "Ġtalking": 6135,
      "($": 6136,
      "break": 6137,
      "Ġaband": 6138,
      "Ġopportun": 6139,
      "vere": 6140,
      "Ġthinking": 6141,
      "Ġanne": 6142,
      "Ġwealth": 6143,
      "Ġdrum": 6144,
      "era": 6145,
      "Ġboston": 6146,
      "(/": 6147,
      "Ġori": 6148,
      "Ġbron": 6149,
      "location": 6150,
      "Ġsomew": 6151,
      "Ġsor": 6152,
      "Ġrespectively": 6153,
      "Ġinfant": 6154,
      "Ġjackson": 6155,
      "Ġsought": 6156,
      "Ġbottom": 6157,
      "iples": 6158,
      "Ġsid": 6159,
      "Ġsynthe": 6160,
      "global": 6161,
      "track": 6162,
      "Ġenjoy": 6163,
      "Ġlaunch": 6164,
      "real": 6165,
      "Ġcalendar": 6166,
      "Ġweak": 6167,
      "Ġasc": 6168,
      "may": 6169,
      "locale": 6170,
      "gn": 6171,
      "wrap": 6172,
      "Ġcapt": 6173,
      "Ġwales": 6174,
      "Ġfootballer": 6175,
      "zant": 6176,
      "Ġentirely": 6177,
      "Ġrout": 6178,
      "Ġensure": 6179,
      "mus": 6180,
      "ye": 6181,
      "Ã³n": 6182,
      "ĠâĪĴ": 6183,
      "Ġastronom": 6184,
      "Ġ1962": 6185,
      "Ġdetermined": 6186,
      "bin": 6187,
      "Ġaccomp": 6188,
      "Ġanth": 6189,
      "Ġyes": 6190,
      "Ġsubsequently": 6191,
      "'.": 6192,
      "offset": 6193,
      "hello": 6194,
      ".$": 6195,
      "enge": 6196,
      "Ġfame": 6197,
      "Ġ|-": 6198,
      "hor": 6199,
      "Ġcompr": 6200,
      "Ġsciences": 6201,
      "Ġanaly": 6202,
      "Ð½": 6203,
      "aling": 6204,
      "front": 6205,
      "Ġrequires": 6206,
      "present": 6207,
      "rim": 6208,
      "âĶĢâĶĢâĶĢâĶĢâĶĢâĶĢâĶĢâĶĢ": 6209,
      "full": 6210,
      "ben": 6211,
      "dy": 6212,
      "ifying": 6213,
      "Ġregarded": 6214,
      "150": 6215,
      "Ġstephen": 6216,
      "Ġorange": 6217,
      "Ġowned": 6218,
      "yon": 6219,
      "Ġdream": 6220,
      "ashion": 6221,
      "Ġweather": 6222,
      "Ġexped": 6223,
      "Ġescape": 6224,
      "Ġtouch": 6225,
      "ker": 6226,
      "cycle": 6227,
      "aria": 6228,
      "black": 6229,
      "Ġeleph": 6230,
      "Ġanswer": 6231,
      "Ġvisual": 6232,
      "cli": 6233,
      "Ġglo": 6234,
      "expression": 6235,
      "Ġwilliams": 6236,
      "english": 6237,
      "Ġalf": 6238,
      "Ġhan": 6239,
      "Ġhtml": 6240,
      "ystem": 6241,
      "Ġ1948": 6242,
      "Ġoldest": 6243,
      "Ġislander": 6244,
      "priv": 6245,
      "Ġcried": 6246,
      "Ġprepar": 6247,
      "Ġstructures": 6248,
      "Ġpiz": 6249,
      "law": 6250,
      "exit": 6251,
      "elements": 6252,
      "Ġped": 6253,
      "Ċĉĉĉĉĉĉĉĉ": 6254,
      "Ġmetadata": 6255,
      "Ġwrap": 6256,
      "Ġcapacity": 6257,
      "anthrop": 6258,
      "Ġattacks": 6259,
      "aug": 6260,
      "agnost": 6261,
      "Ġ46": 6262,
      "Ġspr": 6263,
      "Ġpure": 6264,
      "bey": 6265,
      "Ġinner": 6266,
      "Ġ47": 6267,
      "columns": 6268,
      "Ġcandidate": 6269,
      "Ġmerc": 6270,
      "Ġpowerful": 6271,
      "Ġhawai": 6272,
      "ialog": 6273,
      "resolved": 6274,
      "css": 6275,
      "msg": 6276,
      "Ġresulted": 6277,
      "controller": 6278,
      "card": 6279,
      "will": 6280,
      "Ġspoken": 6281,
      "Ġchalleng": 6282,
      "Ġadmir": 6283,
      "float": 6284,
      "Ġserial": 6285,
      "mont": 6286,
      "Ġrefused": 6287,
      "pir": 6288,
      "Ġconvent": 6289,
      "Ġlisted": 6290,
      "Ġflex": 6291,
      "ille": 6292,
      "uts": 6293,
      "Ġcritics": 6294,
      "Ġdiscovery": 6295,
      "Ġherit": 6296,
      "chers": 6297,
      "Ġaer": 6298,
      "Ġcompetition": 6299,
      "Ġinspired": 6300,
      "Ġak": 6301,
      "Ġvel": 6302,
      "Ġcav": 6303,
      "white": 6304,
      "original": 6305,
      "Ġfollows": 6306,
      "Ġheaven": 6307,
      "Ġpublis": 6308,
      "Ġfrancisco": 6309,
      "Ġari": 6310,
      "Ġbrothers": 6311,
      "wis": 6312,
      "awa": 6313,
      "123": 6314,
      "Ġrivers": 6315,
      "Ġchoice": 6316,
      "Ġabort": 6317,
      "Ġcapita": 6318,
      "registry": 6319,
      "hooks": 6320,
      "scription": 6321,
      "Ġdor": 6322,
      "ighter": 6323,
      "Ġbroken": 6324,
      "Ġwooden": 6325,
      "ÑĤ": 6326,
      "Ġwalls": 6327,
      "Ġbob": 6328,
      "Ġfox": 6329,
      "Ġtranslated": 6330,
      "sylv": 6331,
      "Ġabsolute": 6332,
      "Ġhell": 6333,
      "Ġdistricts": 6334,
      "pp": 6335,
      "adel": 6336,
      "hedral": 6337,
      "eland": 6338,
      "Ġpalest": 6339,
      "Ġofficially": 6340,
      "usalem": 6341,
      "Ġprotected": 6342,
      "Ġgeorgia": 6343,
      "elect": 6344,
      "Ġawarded": 6345,
      "Ġhills": 6346,
      "achus": 6347,
      "Ġleaves": 6348,
      "dout": 6349,
      "uple": 6350,
      "star": 6351,
      "Ġusers": 6352,
      "stringify": 6353,
      "Ġshoot": 6354,
      "gb": 6355,
      "Ġexpressed": 6356,
      "qa": 6357,
      "Ġrates": 6358,
      "Ġphen": 6359,
      "Ġorganizations": 6360,
      "Ġcreating": 6361,
      "Ġcauses": 6362,
      "Ġcollab": 6363,
      "110": 6364,
      "Ġinvasion": 6365,
      "Ġspoke": 6366,
      "asy": 6367,
      "acher": 6368,
      "angle": 6369,
      "Ġ1944": 6370,
      "Ġ300": 6371,
      "Ġbirds": 6372,
      "Ġmedal": 6373,
      "Ġtrigger": 6374,
      "Ġallowing": 6375,
      "rac": 6376,
      "Ġterror": 6377,
      "Ġexports": 6378,
      "ati": 6379,
      "racy": 6380,
      "Ġrival": 6381,
      "Ġrecording": 6382,
      "ÑĢ": 6383,
      "iants": 6384,
      "Ġfeat": 6385,
      "Ġclasses": 6386,
      "Ġchron": 6387,
      "Ġdifference": 6388,
      "layout": 6389,
      "Ġctx": 6390,
      "Ġcu": 6391,
      "Ġlicensed": 6392,
      "oma": 6393,
      "rome": 6394,
      "Ġtransition": 6395,
      "Ġrepeated": 6396,
      "gemini": 6397,
      "Ġevil": 6398,
      "Ġmissing": 6399,
      "Ġdefeat": 6400,
      "064": 6401,
      "Ġextrem": 6402,
      "amin": 6403,
      "Ġdear": 6404,
      "Ñģ": 6405,
      "layer": 6406,
      "Ġpayload": 6407,
      "Ġ'#": 6408,
      "Ġbyzant": 6409,
      "Ġedit": 6410,
      "Ġpieces": 6411,
      "Ġ175": 6412,
      "wich": 6413,
      "wait": 6414,
      "Ġrepresentatives": 6415,
      "del": 6416,
      "hot": 6417,
      "Ġsweden": 6418,
      "Ġpossibly": 6419,
      "Ġtermin": 6420,
      "Ġremark": 6421,
      "Ġ00": 6422,
      "sam": 6423,
      "1992": 6424,
      "Ġfighting": 6425,
      "Ġscore": 6426,
      "Ġatmosp": 6427,
      "Ġlands": 6428,
      "Ġ1961": 6429,
      "Ġboys": 6430,
      "Ġscul": 6431,
      "Ġsevent": 6432,
      "Ġplane": 6433,
      "Ġhumans": 6434,
      "Ġfly": 6435,
      "Ġthor": 6436,
      "Ġattempts": 6437,
      "Ġheritage": 6438,
      "Ġsund": 6439,
      "Ġcycle": 6440,
      "install": 6441,
      "Ġcompletely": 6442,
      "Ġplanned": 6443,
      "Ġcolonial": 6444,
      "Ġdialect": 6445,
      "Ġandrew": 6446,
      "ario": 6447,
      "remove": 6448,
      "600": 6449,
      "Ġvietnam": 6450,
      "Ġborough": 6451,
      "Ġfifth": 6452,
      "Ġcommunist": 6453,
      "Ġvary": 6454,
      "Ġchain": 6455,
      "Ġgained": 6456,
      "Ġcars": 6457,
      "Ġgenerated": 6458,
      "Ġmagic": 6459,
      "Ġconfeder": 6460,
      "oti": 6461,
      "Ġholds": 6462,
      "Ġspecif": 6463,
      "Ġtransportation": 6464,
      "cf": 6465,
      "Ġreplied": 6466,
      "Ġmerch": 6467,
      "race": 6468,
      "etype": 6469,
      "Ġeffectively": 6470,
      "step": 6471,
      "sylvania": 6472,
      "Ġmedicine": 6473,
      "Ġhath": 6474,
      "uese": 6475,
      "Ġaxis": 6476,
      "Ġgetting": 6477,
      "Ġopposed": 6478,
      "Ġpakistan": 6479,
      "Ġvent": 6480,
      "Ġlaid": 6481,
      "Ġvess": 6482,
      "Ġslightly": 6483,
      "Ġtan": 6484,
      "dig": 6485,
      "mans": 6486,
      "oded": 6487,
      "Ġstandards": 6488,
      "Ġlas": 6489,
      "ĠÉµ": 6490,
      "zech": 6491,
      "Ġorganized": 6492,
      "Ġtransfer": 6493,
      "Ġflorida": 6494,
      "Ġseats": 6495,
      "Ġcolumbia": 6496,
      "Ġsettled": 6497,
      "dess": 6498,
      "Ġfruit": 6499,
      "prop": 6500,
      "Ġsab": 6501,
      "Ġorthodox": 6502,
      "ike": 6503,
      "optional": 6504,
      "Ġah": 6505,
      "clusion": 6506,
      "ras": 6507,
      "1991": 6508,
      "iversity": 6509,
      "placeholder": 6510,
      "atom": 6511,
      "Ġswedish": 6512,
      "Ġsteps": 6513,
      "Ġnearby": 6514,
      "iro": 6515,
      "Ġmunicipal": 6516,
      "sing": 6517,
      "Ġjerusalem": 6518,
      "Ġgirls": 6519,
      "onian": 6520,
      "Ġimportance": 6521,
      "Ġvariant": 6522,
      "Ġfit": 6523,
      "bur": 6524,
      "Ġattempted": 6525,
      "filepath": 6526,
      "Ġarthur": 6527,
      "Ġelectronic": 6528,
      "Ġclim": 6529,
      "ghan": 6530,
      "void": 6531,
      "Ġstyles": 6532,
      "raint": 6533,
      "Ġcrisis": 6534,
      "Ġbot": 6535,
      "antly": 6536,
      "Ġwarrant": 6537,
      "orders": 6538,
      "Ġsurrounding": 6539,
      "Ġtel": 6540,
      "Ġmes": 6541,
      "athe": 6542,
      "Ġsecondary": 6543,
      "mill": 6544,
      "gram": 6545,
      "Ġtechnical": 6546,
      "Ġterritories": 6547,
      "Ġagreements": 6548,
      "Ġalgorith": 6549,
      "Ġsides": 6550,
      "Ġfab": 6551,
      "Ġannotated": 6552,
      "Ġdram": 6553,
      "Ġcommander": 6554,
      "Ġio": 6555,
      "Ġsr": 6556,
      "Ġneeds": 6557,
      "Ġprincess": 6558,
      "Ġsword": 6559,
      "Ġstorm": 6560,
      "cho": 6561,
      "Ġhotel": 6562,
      "Ġagency": 6563,
      "Ġgranted": 6564,
      "Ġpainter": 6565,
      "Ġ1939": 6566,
      "uten": 6567,
      "vit": 6568,
      "Ġdesk": 6569,
      "register": 6570,
      "coun": 6571,
      "orus": 6572,
      "Ġmaximum": 6573,
      "Ġnas": 6574,
      "Ġfram": 6575,
      "Ġportray": 6576,
      "Ġoccurs": 6577,
      "rat": 6578,
      "Ġwed": 6579,
      "promise": 6580,
      "Ġwrong": 6581,
      "Ġheadquar": 6582,
      "Ø§": 6583,
      "Ġsculpt": 6584,
      "pk": 6585,
      "Ġbathroom": 6586,
      "Ġprops": 6587,
      "Ġpersons": 6588,
      "Ġtai": 6589,
      "Ġprincipal": 6590,
      "Ġchur": 6591,
      "Ġphone": 6592,
      "Ġhorn": 6593,
      "Ġreports": 6594,
      "Ġgentle": 6595,
      "Ġ1956": 6596,
      "}/": 6597,
      "Ġswitch": 6598,
      "Ġfrequency": 6599,
      "Ġgdp": 6600,
      "ceived": 6601,
      "Ġdrew": 6602,
      "Ġskip": 6603,
      "Ġsolar": 6604,
      "events": 6605,
      "clean": 6606,
      "Ġinhabit": 6607,
      "Ġunlike": 6608,
      "Ġvotes": 6609,
      "Ġpictures": 6610,
      "Ġbegins": 6611,
      "Ġul": 6612,
      "Ġ'<": 6613,
      "Ġplanet": 6614,
      "Ġ400": 6615,
      "Ġpron": 6616,
      "connection": 6617,
      "Ġbull": 6618,
      "heim": 6619,
      "public": 6620,
      "Ġeasily": 6621,
      "drop": 6622,
      "iday": 6623,
      "grad": 6624,
      "returns": 6625,
      "ifications": 6626,
      "Ġdoug": 6627,
      ".;": 6628,
      "iner": 6629,
      "Ġjun": 6630,
      "Ġgenerate": 6631,
      "alph": 6632,
      "router": 6633,
      "Ġ52": 6634,
      "Ġiraq": 6635,
      "design": 6636,
      "created": 6637,
      "isted": 6638,
      "Ġoperated": 6639,
      "kh": 6640,
      "Ġthrone": 6641,
      "Ġdoubt": 6642,
      "Ġleon": 6643,
      "Ġoak": 6644,
      "acent": 6645,
      "Ġlaure": 6646,
      "Ġsweet": 6647,
      "Ġorders": 6648,
      "Ġpul": 6649,
      "Ġzero": 6650,
      "Ġofficials": 6651,
      "2005": 6652,
      "iber": 6653,
      "arn": 6654,
      "Ġprotocol": 6655,
      "ocation": 6656,
      "ji": 6657,
      "Ġ1000": 6658,
      "Ġconstructed": 6659,
      "ads": 6660,
      "auto": 6661,
      "yd": 6662,
      "Ġgoverning": 6663,
      "ouri": 6664,
      "Ġbroke": 6665,
      "Ġattend": 6666,
      "Ġcampus": 6667,
      "rootscope": 6668,
      "2006": 6669,
      "Ġanswered": 6670,
      "Ġrecurs": 6671,
      "Ġbodies": 6672,
      "Ġinvestig": 6673,
      "Ġalongside": 6674,
      "Ġpennsylvania": 6675,
      "101": 6676,
      "commands": 6677,
      "vant": 6678,
      "Ġtorch": 6679,
      "Ġenabled": 6680,
      "Ġrefers": 6681,
      "Ġinstitutions": 6682,
      "chester": 6683,
      "rons": 6684,
      "Ġ):": 6685,
      "Ġdraft": 6686,
      "Ġwish": 6687,
      "Ġpassing": 6688,
      "burgh": 6689,
      "rees": 6690,
      "Ġcryst": 6691,
      "Ġumb": 6692,
      "Ġinstitution": 6693,
      "Ġconfiguration": 6694,
      "Ġages": 6695,
      "Ġmakeup": 6696,
      "></": 6697,
      "uly": 6698,
      "Ġpatch": 6699,
      "Ġbann": 6700,
      "entially": 6701,
      "irmed": 6702,
      "appe": 6703,
      "Ġextensive": 6704,
      "Ġtrial": 6705,
      "Ġjon": 6706,
      "Ġ96": 6707,
      "Ġ1959": 6708,
      "Ġupdated": 6709,
      "Ġelev": 6710,
      "Ġfuel": 6711,
      "Ġinfo": 6712,
      "Ġbudget": 6713,
      "poses": 6714,
      "Ġgoes": 6715,
      "etts": 6716,
      "Ġstatement": 6717,
      "Ġadvance": 6718,
      "Ġadministrative": 6719,
      "occup": 6720,
      "Ġsatell": 6721,
      "igenous": 6722,
      "Ġprogramming": 6723,
      "Ġfalls": 6724,
      "{{": 6725,
      "umin": 6726,
      "Ġplot": 6727,
      "Ġbasketball": 6728,
      "Ġstorage": 6729,
      "dataset": 6730,
      "Ġmigration": 6731,
      "ims": 6732,
      "cb": 6733,
      "Ġstopped": 6734,
      "Ġdedicated": 6735,
      "Ġod": 6736,
      "Ġdashboard": 6737,
      "rick": 6738,
      "Ġbrig": 6739,
      "Ġgil": 6740,
      "Ġ56": 6741,
      "Ġanimation": 6742,
      "Ġdrag": 6743,
      "125": 6744,
      "Ġbrain": 6745,
      "Ġfant": 6746,
      "Ġgem": 6747,
      "Ġprojects": 6748,
      "screen": 6749,
      "limit": 6750,
      "Ġchurches": 6751,
      "detect": 6752,
      "Ġunderstanding": 6753,
      "rele": 6754,
      "2008": 6755,
      "parts": 6756,
      "ĠâĨ": 6757,
      "Ġvisited": 6758,
      "Ġwinning": 6759,
      "Ġbapt": 6760,
      "Ġpainting": 6761,
      "Ġnewspaper": 6762,
      "Ġselection": 6763,
      "Ġalliance": 6764,
      "transform": 6765,
      "Ġparameters": 6766,
      "Ġexplicit": 6767,
      "Ġohio": 6768,
      "fast": 6769,
      "Ġsales": 6770,
      "Ġken": 6771,
      "Ġshortly": 6772,
      "Ġ1958": 6773,
      "Ġliqu": 6774,
      "boolean": 6775,
      "annot": 6776,
      "general": 6777,
      "Ġ95": 6778,
      "omen": 6779,
      "Ġsigns": 6780,
      "Ġdelay": 6781,
      "fixture": 6782,
      "abilities": 6783,
      "Ġlingu": 6784,
      "Ġentertainment": 6785,
      "Ġcorporation": 6786,
      "Ġagricultural": 6787,
      "Ġsoutheast": 6788,
      "Ġgaz": 6789,
      "document": 6790,
      "Ġinher": 6791,
      "inois": 6792,
      "Ġpatri": 6793,
      "night": 6794,
      "Ġtestbed": 6795,
      "ancing": 6796,
      "Ġnovels": 6797,
      "Ġresolved": 6798,
      "Ġapple": 6799,
      "Ġtrying": 6800,
      "emit": 6801,
      "Ġholly": 6802,
      "Ġtechniques": 6803,
      "eler": 6804,
      "Ġ1941": 6805,
      "Ġrig": 6806,
      "}:": 6807,
      "Ġadvoc": 6808,
      "Ġconservative": 6809,
      "acc": 6810,
      "Ġsucceeded": 6811,
      "kee": 6812,
      "Ġfashion": 6813,
      "Ġdecades": 6814,
      "2010": 6815,
      "Ġstands": 6816,
      "à¦": 6817,
      "depend": 6818,
      "Ġreduce": 6819,
      "Ġprinciple": 6820,
      "ockey": 6821,
      "Ġyounger": 6822,
      "uctions": 6823,
      "aked": 6824,
      "td": 6825,
      "024": 6826,
      "opes": 6827,
      "ocracy": 6828,
      "Ġ1942": 6829,
      "oir": 6830,
      "Ġcommunications": 6831,
      "120": 6832,
      "rape": 6833,
      "Ġ128": 6834,
      "Ġexpand": 6835,
      "1989": 6836,
      "Ġlearning": 6837,
      "yan": 6838,
      "Ġargent": 6839,
      "split": 6840,
      "Ġaccur": 6841,
      "Ġproved": 6842,
      "Ġharm": 6843,
      "Ġproport": 6844,
      "uits": 6845,
      "Ġargument": 6846,
      "Ġjr": 6847,
      "Ġwilson": 6848,
      "Ġfirm": 6849,
      "Ġchance": 6850,
      "}`,": 6851,
      "Ġportuguese": 6852,
      "Ġshop": 6853,
      "proxy": 6854,
      "Ġcycl": 6855,
      "128": 6856,
      "hl": 6857,
      "Ġmayor": 6858,
      "Ġequivalent": 6859,
      "1993": 6860,
      "Ġwarm": 6861,
      "itzer": 6862,
      "Ġdjango": 6863,
      "Ġsector": 6864,
      "Ġlogic": 6865,
      "Ġinvalid": 6866,
      "Ġflowers": 6867,
      "Ġ59": 6868,
      "prov": 6869,
      "hann": 6870,
      "Ġreaction": 6871,
      "Ġbran": 6872,
      "uled": 6873,
      "Ġexerc": 6874,
      "Ġaccounts": 6875,
      "Ġjest": 6876,
      "Ġ\"\"": 6877,
      "pread": 6878,
      "Ġwaters": 6879,
      "Ġorche": 6880,
      "Ġalab": 6881,
      "Ġsax": 6882,
      "Ġkilling": 6883,
      "Ġ58": 6884,
      "Ġislamic": 6885,
      "ho": 6886,
      "Ġopposite": 6887,
      "Ġdropped": 6888,
      "inv": 6889,
      "ima": 6890,
      "Ġremote": 6891,
      "Ġlimitations": 6892,
      "osen": 6893,
      "owner": 6894,
      "Ġlies": 6895,
      "Ġrecently": 6896,
      "soft": 6897,
      "Ġcalling": 6898,
      "ctx": 6899,
      "Ġdamage": 6900,
      "ĊĠĠĠĠĠĠĠĠĠĠĠĠĠĠĠĠĠĠĠĠĠ": 6901,
      "Ġcommunication": 6902,
      "Ġtracks": 6903,
      "unknown": 6904,
      "Ġportra": 6905,
      "Ġviolence": 6906,
      "Ġacquired": 6907,
      "Å¡": 6908,
      "Ġshr": 6909,
      "Ġuseful": 6910,
      "Ġgoods": 6911,
      "Ġfrederick": 6912,
      "Ã¡n": 6913,
      "Ġisol": 6914,
      "shared": 6915,
      "cor": 6916,
      "Ġauto": 6917,
      "Ġnegoti": 6918,
      "Ġ1947": 6919,
      "Ġfert": 6920,
      "clude": 6921,
      "Ġtwice": 6922,
      "Ġglad": 6923,
      "Ġathlet": 6924,
      "estamp": 6925,
      "iver": 6926,
      "Ġarist": 6927,
      "Ġaudio": 6928,
      "scroll": 6929,
      "Ġcardinal": 6930,
      "Ġthin": 6931,
      "mi": 6932,
      "font": 6933,
      "Ġlinear": 6934,
      "validation": 6935,
      "Ġskateboard": 6936,
      "Ġ1946": 6937,
      "Ġgray": 6938,
      "1999": 6939,
      "Ġeval": 6940,
      "Ġexecution": 6941,
      "openai": 6942,
      "Ġcircle": 6943,
      "who": 6944,
      "Ġaustria": 6945,
      "Ġsuffered": 6946,
      "Ġ1957": 6947,
      "Ġdestru": 6948,
      "019": 6949,
      "Ġczech": 6950,
      "private": 6951,
      "dest": 6952,
      "Ġeating": 6953,
      "dri": 6954,
      "Ġmythology": 6955,
      "Ġaudience": 6956,
      "Ġvacancy": 6957,
      "Ġgain": 6958,
      "Ġcatalog": 6959,
      "Ġleadership": 6960,
      "Ġparallel": 6961,
      "Ġrepro": 6962,
      "wa": 6963,
      "Ġlith": 6964,
      "transl": 6965,
      "Ġ68": 6966,
      "Ġfactors": 6967,
      "Ġ1949": 6968,
      "progress": 6969,
      "Ġrejected": 6970,
      "loading": 6971,
      "Ġbag": 6972,
      "application": 6973,
      "Ġrecover": 6974,
      "uther": 6975,
      "Ġproceed": 6976,
      "Ġtrav": 6977,
      "Ġcolumns": 6978,
      "Ġguest": 6979,
      "Ġmobile": 6980,
      "Ġ54": 6981,
      "foot": 6982,
      "Ġphilipp": 6983,
      "Ġsolution": 6984,
      "Ġcombat": 6985,
      "Ġdevices": 6986,
      "opedia": 6987,
      "activ": 6988,
      "Ġbench": 6989,
      "listener": 6990,
      "Ġindigenous": 6991,
      "ucky": 6992,
      "eman": 6993,
      "achusetts": 6994,
      "Ġreasons": 6995,
      "such": 6996,
      "turn": 6997,
      "including": 6998,
      "queryselector": 6999,
      "Ġgrace": 7000,
      "uf": 7001,
      "Ġforg": 7002,
      "apter": 7003,
      "serial": 7004,
      "2007": 7005,
      "Ġgoddess": 7006,
      "Ġconducted": 7007,
      "Ġheader": 7008,
      "idents": 7009,
      "pm": 7010,
      "try": 7011,
      "Ġadvantage": 7012,
      "hard": 7013,
      "Ġconsum": 7014,
      "Ġpenins": 7015,
      "ented": 7016,
      "icket": 7017,
      "Ġepisodes": 7018,
      "Ġpizza": 7019,
      "western": 7020,
      "Ġsanta": 7021,
      "eral": 7022,
      "Ġ99": 7023,
      "Ġbibli": 7024,
      "coln": 7025,
      "signal": 7026,
      "Ġuniverse": 7027,
      "Ġphr": 7028,
      "Ġsig": 7029,
      "Ġroads": 7030,
      "ni": 7031,
      "Ġ120": 7032,
      "Ġauthors": 7033,
      "Ġproviding": 7034,
      "Ġsed": 7035,
      "rawl": 7036,
      "Ġ(),": 7037,
      "elve": 7038,
      "Ġcathedral": 7039,
      "aren": 7040,
      "uble": 7041,
      "Ġmeat": 7042,
      "eller": 7043,
      "visible": 7044,
      "Ġskin": 7045,
      "Ġdomain": 7046,
      "Ġbible": 7047,
      "Ġmanaged": 7048,
      "Ġbrook": 7049,
      "Ġdescribes": 7050,
      "Ġpositions": 7051,
      "ieties": 7052,
      "ogen": 7053,
      "Ġarkansas": 7054,
      "Ġrod": 7055,
      "Ġcloud": 7056,
      "Ġclosely": 7057,
      "reset": 7058,
      "Ġdifferences": 7059,
      "device": 7060,
      "docs": 7061,
      "Ġprocessing": 7062,
      "Ġpoetry": 7063,
      "Ġdrama": 7064,
      "storage": 7065,
      "Ġwing": 7066,
      "Ġafghan": 7067,
      "Ġtexts": 7068,
      "Ġeu": 7069,
      "Ġhug": 7070,
      "standing": 7071,
      "Ġresolution": 7072,
      "Ġsvgpathdata": 7073,
      "Ġhabit": 7074,
      "Ġimplied": 7075,
      "apache": 7076,
      "Ġsupporting": 7077,
      "Ġandroidx": 7078,
      ".',": 7079,
      "Ġparish": 7080,
      "Ġimports": 7081,
      "Ġottoman": 7082,
      "bott": 7083,
      "song": 7084,
      "Ġdefence": 7085,
      "riff": 7086,
      "/*": 7087,
      "ti": 7088,
      "Ġheavily": 7089,
      "skills": 7090,
      "Ġparsed": 7091,
      "feature": 7092,
      "Ġhappy": 7093,
      "Ġsufficient": 7094,
      "Ġthousands": 7095,
      "Ġunc": 7096,
      "Ġdaniel": 7097,
      "Ġactors": 7098,
      "ctors": 7099,
      "Ġstrange": 7100,
      "Ġmerged": 7101,
      "inite": 7102,
      "Ġspot": 7103,
      "profile": 7104,
      "Ġ\".": 7105,
      "sky": 7106,
      "(\"/": 7107,
      "Ġkid": 7108,
      "ducing": 7109,
      "Ġcateg": 7110,
      "Ġhidden": 7111,
      "Ġjoy": 7112,
      "Ġattended": 7113,
      "Ġserving": 7114,
      "Ġpublication": 7115,
      "bun": 7116,
      "Ġrandom": 7117,
      "oly": 7118,
      "border": 7119,
      "also": 7120,
      "Ġalabama": 7121,
      "Ġultimately": 7122,
      "uster": 7123,
      "Ġrefuge": 7124,
      "images": 7125,
      "route": 7126,
      "Ġillinois": 7127,
      "Ġprocesses": 7128,
      "Ġbaby": 7129,
      "binding": 7130,
      "enter": 7131,
      "Ġgiraff": 7132,
      "formats": 7133,
      "sort": 7134,
      "Ġcp": 7135,
      "warning": 7136,
      "Ġinqu": 7137,
      "mix": 7138,
      "ĠÃ©": 7139,
      "Ġarc": 7140,
      "Ġquiet": 7141,
      "Ġgeomet": 7142,
      "Ġinfr": 7143,
      "Ġexperi": 7144,
      "debug": 7145,
      "astern": 7146,
      "Ġexclus": 7147,
      "Ġrug": 7148,
      "Ġcorps": 7149,
      "cwd": 7150,
      "Ġsla": 7151,
      "jection": 7152,
      "ilet": 7153,
      "Ġtay": 7154,
      "google": 7155,
      "Ġ1943": 7156,
      "hash": 7157,
      "Ġpin": 7158,
      "Ġ53": 7159,
      "john": 7160,
      "Ġprepared": 7161,
      "2004": 7162,
      "onym": 7163,
      "compose": 7164,
      "Ġenemy": 7165,
      "Ġpermissions": 7166,
      "Ġhoriz": 7167,
      "tle": 7168,
      "unit": 7169,
      "sear": 7170,
      "oto": 7171,
      "bg": 7172,
      "Ġcombination": 7173,
      "ographer": 7174,
      "Ġmassachusetts": 7175,
      "Ġvehicle": 7176,
      "know": 7177,
      "Ġagents": 7178,
      "tion": 7179,
      "sched": 7180,
      "gi": 7181,
      "Ġquestions": 7182,
      "disabled": 7183,
      "occupied": 7184,
      "team": 7185,
      "Ġbuck": 7186,
      "Ġroles": 7187,
      "Ġsuddenly": 7188,
      "Ġdesire": 7189,
      "Ġolympic": 7190,
      "stric": 7191,
      "Ġbos": 7192,
      "alf": 7193,
      "Ġ51": 7194,
      "wright": 7195,
      "Ġgreg": 7196,
      "700": 7197,
      "Ġfactor": 7198,
      "Ġkil": 7199,
      "Ġdesert": 7200,
      "Ġ1955": 7201,
      "Ġsubs": 7202,
      "Ġlyn": 7203,
      "agen": 7204,
      "Ġthick": 7205,
      "Ġkeys": 7206,
      "Ġgh": 7207,
      "Ġtwelve": 7208,
      "Ġhav": 7209,
      "points": 7210,
      "declaration": 7211,
      "Ġ1952": 7212,
      "colors": 7213,
      "ordan": 7214,
      "Ġslave": 7215,
      "Ġ85": 7216,
      "kwargs": 7217,
      "raine": 7218,
      "aka": 7219,
      "ilton": 7220,
      "Ġdisabled": 7221,
      "fire": 7222,
      "Ġinstruments": 7223,
      "Ġstret": 7224,
      "Ġcinem": 7225,
      "Ġhu": 7226,
      "Ġincorporated": 7227,
      "dem": 7228,
      "Ġcomics": 7229,
      "={{": 7230,
      "Ġranked": 7231,
      "Ġvehicles": 7232,
      "chat": 7233,
      "stood": 7234,
      "Ġunable": 7235,
      "Ġcreates": 7236,
      "Ġplural": 7237,
      "Ġfeaturing": 7238,
      "free": 7239,
      "Ġdur": 7240,
      "Ġlincoln": 7241,
      "uing": 7242,
      "Ġestablishments": 7243,
      "--------------------------------": 7244,
      "Ġpreced": 7245,
      "Ġfel": 7246,
      "chann": 7247,
      "Ġcolors": 7248,
      "Ġrid": 7249,
      "Ġnorthwest": 7250,
      "Ġchosen": 7251,
      "Ġvow": 7252,
      "Ġsalt": 7253,
      "Ġapplicable": 7254,
      "Ġworship": 7255,
      "ensor": 7256,
      "avelength": 7257,
      "tax": 7258,
      "Ġproced": 7259,
      "ader": 7260,
      "Ġfundament": 7261,
      "codex": 7262,
      "communic": 7263,
      "Ġends": 7264,
      "foc": 7265,
      "othe": 7266,
      "Ġinhabitants": 7267,
      "upl": 7268,
      "Ġjoe": 7269,
      "Ġmaria": 7270,
      "Ġmanus": 7271,
      "validate": 7272,
      "Ġjournalist": 7273,
      "Ġsheep": 7274,
      "Ġtren": 7275,
      "Ġjuris": 7276,
      "Ġphysics": 7277,
      "Ġmissouri": 7278,
      "Ġmyst": 7279,
      "rose": 7280,
      "Ġtrail": 7281,
      "Ġmatches": 7282,
      "659": 7283,
      "ipl": 7284,
      "Ġdoctr": 7285,
      "Ġparked": 7286,
      "united": 7287,
      "Ġlogger": 7288,
      "platform": 7289,
      "Ġmoral": 7290,
      "Ġadjacent": 7291,
      "Ġtypical": 7292,
      "Ġskills": 7293,
      "Ġworldwide": 7294,
      "Ġchristmas": 7295,
      "Ġspecifically": 7296,
      "Ġcontained": 7297,
      "Ġlearned": 7298,
      "Ġfactory": 7299,
      "Ġcert": 7300,
      "reens": 7301,
      "uv": 7302,
      "Ġsust": 7303,
      "Ġeasy": 7304,
      "Ġmonitor": 7305,
      "Ġchristianity": 7306,
      "Ġadvert": 7307,
      "thon": 7308,
      "Ġsubstant": 7309,
      "injector": 7310,
      "Ġministry": 7311,
      "Ġconqu": 7312,
      "Ġruled": 7313,
      "800": 7314,
      "Ġclay": 7315,
      "aust": 7316,
      "gatsby": 7317,
      "Ġsignificantly": 7318,
      "issance": 7319,
      "Ġpolicies": 7320,
      "rum": 7321,
      "vereign": 7322,
      "Ġ\"\",": 7323,
      "Ġhappened": 7324,
      "Ġobtained": 7325,
      "Ġauthentic": 7326,
      "Ġdecline": 7327,
      "Ġpeop": 7328,
      "ira": 7329,
      "Ġopinion": 7330,
      "Ġjane": 7331,
      "built": 7332,
      "Ġaffected": 7333,
      "ante": 7334,
      "Ġ2026": 7335,
      "viation": 7336,
      "Ġmouse": 7337,
      "Ġ1954": 7338,
      "Ġelementary": 7339,
      "Ġdrawn": 7340,
      "Ġgap": 7341,
      "atically": 7342,
      "fy": 7343,
      "Ġdna": 7344,
      "dialog": 7345,
      "Ġspl": 7346,
      "Ġauthorities": 7347,
      "Ġemployed": 7348,
      "'));": 7349,
      "Ġexpedition": 7350,
      "ilder": 7351,
      "Ġwitness": 7352,
      "canc": 7353,
      "Ġcarrying": 7354,
      "nodes": 7355,
      "Ġrobin": 7356,
      "Ġislam": 7357,
      "Ġfu": 7358,
      "txt": 7359,
      "Ġpapers": 7360,
      "1994": 7361,
      "Ġaz": 7362,
      "Ġserves": 7363,
      "Ġcomic": 7364,
      "Ġ1900": 7365,
      "vas": 7366,
      "ila": 7367,
      "Ġdiscover": 7368,
      "Ġmexican": 7369,
      "Ġcourts": 7370,
      "Ġdrink": 7371,
      "Ġfried": 7372,
      "Ġcoordin": 7373,
      "agents": 7374,
      "returnvalue": 7375,
      "Ġextent": 7376,
      "Ġion": 7377,
      "Ġton": 7378,
      "idence": 7379,
      "Ġjourney": 7380,
      "Ġdirective": 7381,
      "Ġprinciples": 7382,
      "nt": 7383,
      "Ġnobel": 7384,
      "Ġpatterns": 7385,
      "Ġdelete": 7386,
      "Ġ1936": 7387,
      "ression": 7388,
      "Ġ01": 7389,
      "Ġarticles": 7390,
      "strictequal": 7391,
      "person": 7392,
      "Ġcontrolled": 7393,
      "stract": 7394,
      "Ġfacilities": 7395,
      "Ġalexand": 7396,
      "iable": 7397,
      "inction": 7398,
      "Ġstandalone": 7399,
      "Ġboundary": 7400,
      "wing": 7401,
      "Ġdebut": 7402,
      "Ġdaytona": 7403,
      "Ġtreas": 7404,
      "Ġacting": 7405,
      "Ġrecip": 7406,
      "Ġbush": 7407,
      "crete": 7408,
      "Ġmun": 7409,
      "Ġ1953": 7410,
      "providers": 7411,
      "Ã±": 7412,
      "copy": 7413,
      "Ġnit": 7414,
      "Ġperforming": 7415,
      "pal": 7416,
      "south": 7417,
      "Ġ57": 7418,
      "Ġ66": 7419,
      "Ġimproved": 7420,
      "Ġdocuments": 7421,
      "Ġrevealed": 7422,
      "pson": 7423,
      "runner": 7424,
      "Ġspeaking": 7425,
      "Ġburied": 7426,
      "Ġvic": 7427,
      "Ġassass": 7428,
      "}\"": 7429,
      "Ġsalv": 7430,
      "Ġcolony": 7431,
      "2001": 7432,
      "Ġsetup": 7433,
      "akers": 7434,
      "gt": 7435,
      "avia": 7436,
      "ictional": 7437,
      "Ġencyclopedia": 7438,
      "Ġpredict": 7439,
      "aga": 7440,
      "2003": 7441,
      "Ġconcert": 7442,
      "Ġsic": 7443,
      "ela": 7444,
      "while": 7445,
      "Ġdiet": 7446,
      "Ġgi": 7447,
      "Ġmichigan": 7448,
      "Ġcoff": 7449,
      "sur": 7450,
      "Ġnewly": 7451,
      "Ġbelief": 7452,
      "athan": 7453,
      "azy": 7454,
      "âĪĴ": 7455,
      "Ġcot": 7456,
      "align": 7457,
      "Ġumbrell": 7458,
      "clip": 7459,
      "Ġclar": 7460,
      "Ġtourism": 7461,
      "animation": 7462,
      "Ġgrey": 7463,
      "Ġsemi": 7464,
      "Ġcomputers": 7465,
      "Ġresource": 7466,
      "pton": 7467,
      "âĢĿ": 7468,
      "Ġsoil": 7469,
      "Ġtesting": 7470,
      "Ġlewis": 7471,
      "256": 7472,
      "}.": 7473,
      "Ġpremier": 7474,
      "Ġhockey": 7475,
      "preview": 7476,
      "113": 7477,
      "shape": 7478,
      "Ġmanuscript": 7479,
      "Ġstrategy": 7480,
      "neg": 7481,
      "stat": 7482,
      "Ġpip": 7483,
      "Ġcloth": 7484,
      "Ġmeta": 7485,
      "Ġisraeli": 7486,
      "Ġ'',": 7487,
      "Ġpeoples": 7488,
      "Ġdeleg": 7489,
      "lint": 7490,
      "ported": 7491,
      "Ġsovereign": 7492,
      "Ġdenmark": 7493,
      "Ġmodified": 7494,
      "power": 7495,
      "issipp": 7496,
      "Ġreality": 7497,
      "oked": 7498,
      "runtime": 7499,
      "Ġron": 7500,
      "rot": 7501,
      "Ġmanufacturing": 7502,
      "Ġtong": 7503,
      "Ġtribut": 7504,
      "Ġpig": 7505,
      "Ġroutes": 7506,
      "Ġstudied": 7507,
      "Ġformula": 7508,
      "ingly": 7509,
      "Ġmol": 7510,
      "exception": 7511,
      "Ġbread": 7512,
      "Ġclassic": 7513,
      "ilation": 7514,
      "nings": 7515,
      "aph": 7516,
      "Ġpeninsula": 7517,
      "emet": 7518,
      "Ġgran": 7519,
      "Ġpassage": 7520,
      "iat": 7521,
      "gre": 7522,
      "Ġbeside": 7523,
      "Ġrein": 7524,
      "brew": 7525,
      "Ġcircumst": 7526,
      "Ġindones": 7527,
      "Ġturkey": 7528,
      "Ġsult": 7529,
      "Ġhes": 7530,
      "Ġvast": 7531,
      "cul": 7532,
      "Ġdivisions": 7533,
      "derr": 7534,
      "Ġspiritual": 7535,
      "apply": 7536,
      "Ġrestaur": 7537,
      "Ġwound": 7538,
      "Ġdre": 7539,
      "Ġ72": 7540,
      "Ġrecursive": 7541,
      "ogue": 7542,
      "Ġmanifest": 7543,
      "Ġdoesn": 7544,
      "Ġhistorically": 7545,
      "Ġdeveloping": 7546,
      "Ġsell": 7547,
      "Ġattached": 7548,
      "Ġvictoria": 7549,
      "Ġcompliance": 7550,
      "Ġmaintained": 7551,
      "Ġsits": 7552,
      "Ġcass": 7553,
      "Ġwire": 7554,
      "hu": 7555,
      "Ġbranches": 7556,
      "Ġtribes": 7557,
      "Ġchampion": 7558,
      "Ġvision": 7559,
      "Ġwhereas": 7560,
      "possible": 7561,
      "apes": 7562,
      "Ġelim": 7563,
      "cohol": 7564,
      "Ġachieved": 7565,
      "Ġsuccessfully": 7566,
      "Ġabol": 7567,
      "Ġnoise": 7568,
      "Ġpione": 7569,
      "tele": 7570,
      "tv": 7571,
      "Ġencoun": 7572,
      "getby": 7573,
      "Ġapproved": 7574,
      "isc": 7575,
      "eto": 7576,
      "__(": 7577,
      "ĠâĨĴ": 7578,
      "Ġ160": 7579,
      "Ġmedium": 7580,
      "Ġmcp": 7581,
      "Ġintellect": 7582,
      "Ġkong": 7583,
      "mn": 7584,
      "package": 7585,
      "Ġwaiting": 7586,
      "Ġcrus": 7587,
      "Ġassistant": 7588,
      "Ġestablishment": 7589,
      "hidden": 7590,
      "Ġending": 7591,
      "Ġjum": 7592,
      "Ġeag": 7593,
      "Ġneck": 7594,
      "('.": 7595,
      "Ġlang": 7596,
      "ady": 7597,
      "Ġkansas": 7598,
      "Ġ88": 7599,
      "Ġdetermine": 7600,
      "Ġmsg": 7601,
      "Ġheadquarters": 7602,
      "Ġfought": 7603,
      "Ġsomewhat": 7604,
      "Ġstable": 7605,
      "Ġbyzantine": 7606,
      "Ġfounder": 7607,
      "Ġfurn": 7608,
      "Ġnodes": 7609,
      "seud": 7610,
      "ĠÂ£": 7611,
      "****************************************************************": 7612,
      "Ġadapted": 7613,
      "pes": 7614,
      "Ġgab": 7615,
      "Ġegyptian": 7616,
      "Ġresear": 7617,
      "angel": 7618,
      "Ġabsor": 7619,
      "1970": 7620,
      "Ġvariable": 7621,
      "Ġcape": 7622,
      "apse": 7623,
      "disable": 7624,
      "Ġrud": 7625,
      "ologies": 7626,
      "Ġdepending": 7627,
      "Ġhub": 7628,
      "Ġ1938": 7629,
      "cline": 7630,
      "Ġexit": 7631,
      "Ġlawyer": 7632,
      "Ġdoub": 7633,
      "Ġshore": 7634,
      "Ġ1951": 7635,
      "series": 7636,
      "brit": 7637,
      "Ġcircuit": 7638,
      "inth": 7639,
      "password": 7640,
      "struction": 7641,
      "Ġliv": 7642,
      "bab": 7643,
      "Ġseed": 7644,
      "Ġsuggests": 7645,
      "gra": 7646,
      "Ġonto": 7647,
      "2002": 7648,
      "Ġkorean": 7649,
      "Ġmetric": 7650,
      "Ġexactly": 7651,
      "lets": 7652,
      "Ġere": 7653,
      "Ġcancer": 7654,
      "member": 7655,
      "Ġski": 7656,
      "icker": 7657,
      "Ġ98": 7658,
      "mockreturnvalue": 7659,
      "bul": 7660,
      "Ġhunting": 7661,
      "Ġconstitutional": 7662,
      "Ġku": 7663,
      "istical": 7664,
      "Ġpersian": 7665,
      "Ġdissol": 7666,
      "Ġincreasingly": 7667,
      "Ġ101": 7668,
      "issippi": 7669,
      "Ġcards": 7670,
      "Ġpolar": 7671,
      "Ġsaved": 7672,
      "results": 7673,
      "Ġbom": 7674,
      "tor": 7675,
      "Ġslowly": 7676,
      "Ġfeeling": 7677,
      "daytona": 7678,
      "cost": 7679,
      "2011": 7680,
      "Ġtoilet": 7681,
      "Ġlaying": 7682,
      "orate": 7683,
      "ounce": 7684,
      "Ġsiege": 7685,
      "akh": 7686,
      "reasoning": 7687,
      "Ġoxy": 7688,
      "Ġcabinet": 7689,
      "Ġstack": 7690,
      "grade": 7691,
      "esome": 7692,
      "img": 7693,
      "Ġheads": 7694,
      "Ġ!=": 7695,
      "Ġtone": 7696,
      "Ġwet": 7697,
      "Ġevol": 7698,
      "Ġisinstance": 7699,
      "Ġorigins": 7700,
      "Ġrabb": 7701,
      "Ġgallery": 7702,
      "Ġpale": 7703,
      "Ġmathematics": 7704,
      "Ġmarc": 7705,
      "german": 7706,
      "icians": 7707,
      "Ġpractices": 7708,
      "Ġosc": 7709,
      "Ġ69": 7710,
      "Ġrising": 7711,
      "Ġarmen": 7712,
      "ographical": 7713,
      "Ġpurposes": 7714,
      "Ġtruck": 7715,
      "Ġharry": 7716,
      "Ġbiography": 7717,
      "Ġcausing": 7718,
      "Ġwaves": 7719,
      "Ġadam": 7720,
      "Ġrapidly": 7721,
      "Ġ1918": 7722,
      "Ġsilent": 7723,
      "Ġcoastal": 7724,
      "Ġrevolutionary": 7725,
      "extract": 7726,
      "Ġdriver": 7727,
      "dates": 7728,
      "aste": 7729,
      "117": 7730,
      "Ġmargin": 7731,
      "Ġcaught": 7732,
      "memory": 7733,
      "aya": 7734,
      "Ġmah": 7735,
      "Ġbands": 7736,
      "Ġcamera": 7737,
      "Ġaqu": 7738,
      "Ġgreatly": 7739,
      "Ġdataset": 7740,
      "Ġabd": 7741,
      "Ġtelephone": 7742,
      "Ġpermission": 7743,
      "safe": 7744,
      "Ġlux": 7745,
      "cow": 7746,
      "044": 7747,
      "bee": 7748,
      "starts": 7749,
      "Ġfont": 7750,
      "Ġcited": 7751,
      "Ġ164": 7752,
      "classname": 7753,
      "Ġcontinues": 7754,
      "++;": 7755,
      "Ġcrowd": 7756,
      "Ġrebell": 7757,
      "Ġnetworks": 7758,
      "Ġmedit": 7759,
      "Ġgib": 7760,
      "astru": 7761,
      "Ġouter": 7762,
      "Ġnich": 7763,
      "Ġnorway": 7764,
      "Ġsimon": 7765,
      "Ġinvolve": 7766,
      "Ġdrawing": 7767,
      "integr": 7768,
      "\"}": 7769,
      "send": 7770,
      "aine": 7771,
      "Ġrelation": 7772,
      "interface": 7773,
      "licens": 7774,
      "Ġdeclaration": 7775,
      "hispanic": 7776,
      "vens": 7777,
      "Ġnotably": 7778,
      "Ġsoldier": 7779,
      "Ġhistorians": 7780,
      "ugins": 7781,
      "Ġinterior": 7782,
      "ders": 7783,
      "à¹": 7784,
      "Ġsole": 7785,
      "iest": 7786,
      "Ġfavour": 7787,
      "Ġorbit": 7788,
      "Ġentr": 7789,
      "Ġanthrop": 7790,
      "secut": 7791,
      "Ġstreets": 7792,
      "`.": 7793,
      "Ġsevere": 7794,
      "Ġwol": 7795,
      "Ġreput": 7796,
      "112": 7797,
      "summary": 7798,
      "Ġibm": 7799,
      "Ġnum": 7800,
      "Ġfris": 7801,
      "Ġengineer": 7802,
      "Ġtraditions": 7803,
      "Ġgoverned": 7804,
      "Ġinstalled": 7805,
      "nn": 7806,
      "ropical": 7807,
      "istant": 7808,
      "cm": 7809,
      "Ġconcluded": 7810,
      "Ġconstructor": 7811,
      "Ġamend": 7812,
      "Ġtemperatures": 7813,
      "ployment": 7814,
      "Ġconscious": 7815,
      "||": 7816,
      "iot": 7817,
      "Ġlegislative": 7818,
      "Ġdesignated": 7819,
      "gh": 7820,
      "[],": 7821,
      "vak": 7822,
      "anthropic": 7823,
      "urally": 7824,
      "1988": 7825,
      "Ġ150": 7826,
      "aux": 7827,
      "aints": 7828,
      "Ġruler": 7829,
      "Ġvul": 7830,
      "Ġtail": 7831,
      "Ġpassenger": 7832,
      "102": 7833,
      "Ġmirror": 7834,
      "sect": 7835,
      "Ġ1937": 7836,
      "Ġdetermin": 7837,
      "Ġdescent": 7838,
      "Ġcanon": 7839,
      "Ġjacob": 7840,
      "primary": 7841,
      "Ġformerly": 7842,
      "Ġwalter": 7843,
      "req": 7844,
      "Ġprohib": 7845,
      "Ġextreme": 7846,
      "Ġalcohol": 7847,
      "Ġcallback": 7848,
      "Ġpear": 7849,
      "Ġ62": 7850,
      "Ġphilosopher": 7851,
      "Ċĉĉĉĉĉĉĉ": 7852,
      "Ġhyper": 7853,
      "1997": 7854,
      "Ġrenamed": 7855,
      "Ġstrike": 7856,
      "ele": 7857,
      "---": 7858,
      "Ġbatter": 7859,
      "Ġtomb": 7860,
      "Ġtitles": 7861,
      "Ġrect": 7862,
      "Ġment": 7863,
      "throw": 7864,
      "Ġratio": 7865,
      "Ġdates": 7866,
      "ashed": 7867,
      "Ġlion": 7868,
      "Ġsuperior": 7869,
      "Ġarguments": 7870,
      "Ġlicenses": 7871,
      "bytes": 7872,
      "Ġdriving": 7873,
      "Ġrunner": 7874,
      "Ġcurrency": 7875,
      "ologists": 7876,
      "etection": 7877,
      "Ð¾Ð": 7878,
      "Ġmeasures": 7879,
      "Ġconsiderable": 7880,
      "Â°": 7881,
      "Ġbang": 7882,
      "svg": 7883,
      "Ġpersonnel": 7884,
      "feed": 7885,
      "Ġconfirmed": 7886,
      "Ġtaylor": 7887,
      "Ġjordan": 7888,
      "Ġexecuted": 7889,
      "pic": 7890,
      "Ġburg": 7891,
      "Ġlan": 7892,
      "255": 7893,
      "Ġrecognition": 7894,
      "Ġniger": 7895,
      "Ġparks": 7896,
      "Ġrit": 7897,
      "Ġunderstood": 7898,
      "Ġkeyboard": 7899,
      "given": 7900,
      "Ġale": 7901,
      "ading": 7902,
      "Ġshadow": 7903,
      ")',": 7904,
      "Ġlayout": 7905,
      "Ġpel": 7906,
      "bean": 7907,
      "Ġhans": 7908,
      "ambig": 7909,
      "Ġjohann": 7910,
      "Ġcanal": 7911,
      "Ġhonour": 7912,
      "Ġhollywood": 7913,
      "iop": 7914,
      "Ġmagnetic": 7915,
      "adelph": 7916,
      "Ġcls": 7917,
      "Ġcd": 7918,
      "Ġaged": 7919,
      "Ġstatistics": 7920,
      "Ġhem": 7921,
      "Ġdonald": 7922,
      "Ġinterval": 7923,
      "`;": 7924,
      "Ġplanning": 7925,
      "Ġbilly": 7926,
      "ulus": 7927,
      "Ġcontributor": 7928,
      "Ġlocations": 7929,
      "Ġroughly": 7930,
      "Ġgulf": 7931,
      "Ġconverted": 7932,
      "Ġtrump": 7933,
      "Ġju": 7934,
      "Ġkur": 7935,
      "Ġcaes": 7936,
      "Ġutil": 7937,
      "Ġmars": 7938,
      "Ġsultan": 7939,
      "Ġsacrif": 7940,
      "Ġtam": 7941,
      "Ġfranch": 7942,
      "Ġdescend": 7943,
      "Ġ78": 7944,
      "Ġbalt": 7945,
      ")\",": 7946,
      "ignore": 7947,
      "Ġmississippi": 7948,
      "Ġplus": 7949,
      "Ġsimilarly": 7950,
      "Ġlinked": 7951,
      "Ġaccompan": 7952,
      "Ġpilot": 7953,
      "149": 7954,
      "Ġelder": 7955,
      "Ġalbums": 7956,
      "Ġlod": 7957,
      "109": 7958,
      "posit": 7959,
      "Ġdocumentary": 7960,
      "Ġtheories": 7961,
      "Ġtheod": 7962,
      "execute": 7963,
      "116": 7964,
      "Ġdefend": 7965,
      "Ġ168": 7966,
      "Ġkir": 7967,
      "Ġmovements": 7968,
      "mask": 7969,
      "Ġproof": 7970,
      "Ġcursor": 7971,
      ",--": 7972,
      "mers": 7973,
      "osph": 7974,
      "\":\"": 7975,
      "1980": 7976,
      "Ġcriticism": 7977,
      "job": 7978,
      "pressed": 7979,
      "Ġavenue": 7980,
      "Ġ]);": 7981,
      "space": 7982,
      "itled": 7983,
      "styles": 7984,
      "Ġloop": 7985,
      "Ġjazz": 7986,
      "Ġstruck": 7987,
      "report": 7988,
      "Ġuniversities": 7989,
      "Ġshift": 7990,
      "father": 7991,
      "Ġaccident": 7992,
      "Ġmental": 7993,
      "Ġsummary": 7994,
      "Ġbuff": 7995,
      "Ġmask": 7996,
      "iency": 7997,
      "wealth": 7998,
      "Ġsupposed": 7999,
      "Ġestate": 8000,
      "Ġ1933": 8001,
      "ategy": 8002,
      "Ġexplained": 8003,
      "Ġideal": 8004,
      "Ġroger": 8005,
      "zing": 8006,
      "Ġcable": 8007,
      "Ġimpossible": 8008,
      "115": 8009,
      "phy": 8010,
      "zan": 8011,
      "Ġleads": 8012,
      "Ġhaz": 8013,
      "static": 8014,
      "Ġalign": 8015,
      "Ġlandsc": 8016,
      "Ġinfrastru": 8017,
      "omer": 8018,
      "una": 8019,
      "details": 8020,
      "Ġbrid": 8021,
      "105": 8022,
      "olas": 8023,
      "Ġtaught": 8024,
      "Ġwolf": 8025,
      "Ġnazi": 8026,
      "ponent": 8027,
      "attribute": 8028,
      "gpt": 8029,
      "Ġturning": 8030,
      "datetime": 8031,
      "Ġcant": 8032,
      "going": 8033,
      "Ġexplan": 8034,
      "Ġreserved": 8035,
      "Ġlanding": 8036,
      "Ġrepres": 8037,
      "Ġbreath": 8038,
      "bd": 8039,
      "Ġric": 8040,
      "Ġpaths": 8041,
      "ran": 8042,
      "Ġessential": 8043,
      "Ġlaugh": 8044,
      "Ġpractical": 8045,
      "updated": 8046,
      "1998": 8047,
      "Ġvoted": 8048,
      "comput": 8049,
      "Ġrepresents": 8050,
      "Ġreserve": 8051,
      "issue": 8052,
      "Ġsugar": 8053,
      "adapter": 8054,
      "Ġ89": 8055,
      "Ġcha": 8056,
      "Ġray": 8057,
      "Ġincident": 8058,
      "Ġseasons": 8059,
      "Ġfocused": 8060,
      "Ġspecified": 8061,
      "ographics": 8062,
      "Ġcommands": 8063,
      "Ġsymbols": 8064,
      "2012": 8065,
      "entries": 8066,
      "Ġsher": 8067,
      "tests": 8068,
      "Ġsharp": 8069,
      "025": 8070,
      "identifier": 8071,
      "Ġspin": 8072,
      "Ġexperienced": 8073,
      "fail": 8074,
      "144": 8075,
      "provide": 8076,
      "symbol": 8077,
      "Ġsimpl": 8078,
      "ontal": 8079,
      "Ġsamuel": 8080,
      "ollo": 8081,
      "Ġwarning": 8082,
      "Ġtitled": 8083,
      "mut": 8084,
      "diction": 8085,
      "Ġregistered": 8086,
      "trigger": 8087,
      "films": 8088,
      "Ġcontributed": 8089,
      "Ġalleg": 8090,
      "lined": 8091,
      "118": 8092,
      "complete": 8093,
      "Ġblocks": 8094,
      "Ġdecade": 8095,
      "times": 8096,
      "Ġsteam": 8097,
      "Ġcolour": 8098,
      "make": 8099,
      "Ġmong": 8100,
      "region": 8101,
      "Ġedited": 8102,
      "1995": 8103,
      "Ġhence": 8104,
      "Ġphoto": 8105,
      "}`);": 8106,
      "029": 8107,
      "iversary": 8108,
      "Ġgather": 8109,
      "Ġted": 8110,
      "ova": 8111,
      "urb": 8112,
      "Ġ67": 8113,
      "Ġwides": 8114,
      "Ġbeauty": 8115,
      "Ġwidespread": 8116,
      ".__": 8117,
      "iph": 8118,
      "kdir": 8119,
      "Ä«": 8120,
      "Ġ79": 8121,
      "vo": 8122,
      "Ġ`,": 8123,
      "Ġbund": 8124,
      "rock": 8125,
      "Ãº": 8126,
      "inted": 8127,
      "Ġreturning": 8128,
      "Ġdick": 8129,
      "Ġscand": 8130,
      "tz": 8131,
      "Ġdivine": 8132,
      "Ġlind": 8133,
      "Ġcdp": 8134,
      "Ġdisney": 8135,
      "Ġmining": 8136,
      "ords": 8137,
      "Ġbuffer": 8138,
      "Ġtaiwan": 8139,
      "Ġcoc": 8140,
      "Ã¼r": 8141,
      "save": 8142,
      "Ġghost": 8143,
      "Ġgender": 8144,
      "was": 8145,
      "inces": 8146,
      "emic": 8147,
      "green": 8148,
      "urer": 8149,
      "Ġdavis": 8150,
      "Ġsenior": 8151,
      "Ġmarry": 8152,
      "Ġ174": 8153,
      "Ġblind": 8154,
      "Ġharvard": 8155,
      "Ġsink": 8156,
      "Ġford": 8157,
      "Ġstress": 8158,
      "Ġgay": 8159,
      "ishment": 8160,
      "Ã©e": 8161,
      "acle": 8162,
      "iac": 8163,
      "Ġversus": 8164,
      "Ġextremely": 8165,
      "Ġdub": 8166,
      "Ġcollected": 8167,
      "ework": 8168,
      "arrow": 8169,
      "ĊĠĠĠĠĠĠĠĠĠĠĠĠĠĠĠĠĠĠĠĠĠĠĠĠĠĠĠĠĠĠĠĠĠĠĠĠ": 8170,
      "Ġbic": 8171,
      "zh": 8172,
      "Ġspouse": 8173,
      "Ġsatellite": 8174,
      "Ġsoph": 8175,
      "Ġclassification": 8176,
      "Ġdemographics": 8177,
      "done": 8178,
      "gy": 8179,
      "Ġanch": 8180,
      "Ġdanish": 8181,
      "wegian": 8182,
      "Ġradiation": 8183,
      "Ġlis": 8184,
      "far": 8185,
      "theless": 8186,
      "Ġcouples": 8187,
      "itime": 8188,
      "Ġgit": 8189,
      "oder": 8190,
      "Ġmilit": 8191,
      "operation": 8192,
      "Ġinvestment": 8193,
      "tomatch": 8194,
      "Ġguy": 8195,
      "119": 8196,
      "ais": 8197,
      "icked": 8198,
      "Ġgn": 8199,
      "Ġ512": 8200,
      "Ġwhit": 8201,
      "Ġ94": 8202,
      "Ġbaron": 8203,
      "Ġdol": 8204,
      "Ġstrongly": 8205,
      "startswith": 8206,
      "Ġlig": 8207,
      "containing": 8208,
      "Ġ63": 8209,
      "licenses": 8210,
      "nament": 8211,
      "axios": 8212,
      "Ġcomfort": 8213,
      "Ġsuppor": 8214,
      "Ġboundaries": 8215,
      "Ġfishing": 8216,
      "Ġabandoned": 8217,
      "á»": 8218,
      "Ġwinners": 8219,
      "internal": 8220,
      "tohavebeencalledwith": 8221,
      "Ġ{...": 8222,
      "inton": 8223,
      "Ġcandidates": 8224,
      "135": 8225,
      "Ġadditionally": 8226,
      "lan": 8227,
      "Ġbanks": 8228,
      "Ġwrites": 8229,
      "Ġdestruction": 8230,
      "ols": 8231,
      "Ġfinland": 8232,
      "filename": 8233,
      "esco": 8234,
      "escript": 8235,
      "elly": 8236,
      "Ġdeput": 8237,
      "skip": 8238,
      "pective": 8239,
      "Ġseek": 8240,
      "extensions": 8241,
      "Ġstatue": 8242,
      "Ġnapole": 8243,
      "Ġassigned": 8244,
      "Ġprev": 8245,
      "Ġchallenge": 8246,
      "Ġappropri": 8247,
      "014": 8248,
      "boards": 8249,
      "Ġoccas": 8250,
      "Ġprofile": 8251,
      "ĠâĢľ": 8252,
      "Ġorb": 8253,
      "Ġinstanceof": 8254,
      "review": 8255,
      "username": 8256,
      "Ġsunday": 8257,
      "Ġinfrastructure": 8258,
      "Ġ1929": 8259,
      "why": 8260,
      "Ġpopularity": 8261,
      "available": 8262,
      "Ġlooks": 8263,
      "Ġdepth": 8264,
      "Ġllc": 8265,
      "Ġsquad": 8266,
      "pie": 8267,
      "modal": 8268,
      "Ġindiana": 8269,
      "Ġchemistry": 8270,
      "Ġ<=": 8271,
      "Ġhoward": 8272,
      "Ġscientists": 8273,
      "Ġfan": 8274,
      "Ġmail": 8275,
      "Ġmatters": 8276,
      "embed": 8277,
      "Ġracing": 8278,
      "Ġsad": 8279,
      "Ġgovernments": 8280,
      "adelphia": 8281,
      "Ġcredit": 8282,
      "Ġdies": 8283,
      "Ġcomparison": 8284,
      "Ġfundamental": 8285,
      "Ġamaz": 8286,
      "Ġliquid": 8287,
      "pac": 8288,
      "vd": 8289,
      "asts": 8290,
      "Ġbinding": 8291,
      "Ġfallback": 8292,
      "Ġnevertheless": 8293,
      "ãĥ": 8294,
      "Ġtank": 8295,
      "final": 8296,
      "Ġsections": 8297,
      "2013": 8298,
      "override": 8299,
      "Ġ93": 8300,
      "Ġconsol": 8301,
      "Ġ1935": 8302,
      "Ġambass": 8303,
      "Ġindustries": 8304,
      "Ġtreated": 8305,
      "Ġpup": 8306,
      "Ġanniversary": 8307,
      "Ġresident": 8308,
      "Ġscroll": 8309,
      "Ġengines": 8310,
      "Ġphotograph": 8311,
      "Ġguine": 8312,
      "Ġproducing": 8313,
      "compl": 8314,
      "Ġbah": 8315,
      "Ġtow": 8316,
      "oa": 8317,
      "Ġgradually": 8318,
      "Ġfred": 8319,
      "Ġlists": 8320,
      "Ġbou": 8321,
      "Ġ1919": 8322,
      "Ġparad": 8323,
      "Ġadding": 8324,
      "Ġcreatet": 8325,
      "contents": 8326,
      "Ġgrown": 8327,
      "627": 8328,
      "Ġcorrespond": 8329,
      "015": 8330,
      "Ġmathematical": 8331,
      "Ġpiano": 8332,
      "012": 8333,
      "Ġoxygen": 8334,
      "Ġfinding": 8335,
      "Ġ1932": 8336,
      "Ġrepresentative": 8337,
      "Ġfold": 8338,
      "Ġ74": 8339,
      "Ġthirty": 8340,
      "Ġlimits": 8341,
      "Ġvector": 8342,
      "city": 8343,
      "stan": 8344,
      "Ġinfluential": 8345,
      "Ġceremony": 8346,
      "Ġrif": 8347,
      "Ġangle": 8348,
      "ulating": 8349,
      "Ġenh": 8350,
      "about": 8351,
      "they": 8352,
      "Ġaspects": 8353,
      "Ġdouglas": 8354,
      "010": 8355,
      "Ġkr": 8356,
      "Ġconquest": 8357,
      "Ġ1928": 8358,
      "Ġip": 8359,
      "`);": 8360,
      "Ġsecure": 8361,
      "Ġshif": 8362,
      "Ġseeing": 8363,
      "Ġautonom": 8364,
      "Ġ1914": 8365,
      "anti": 8366,
      "Ġimplementation": 8367,
      "Ġtennes": 8368,
      "since": 8369,
      "Ġbce": 8370,
      "elle": 8371,
      "Ġlocalvar": 8372,
      "anean": 8373,
      "Ġrac": 8374,
      "flex": 8375,
      "Ġvoy": 8376,
      "Ġhungary": 8377,
      "Ġdebate": 8378,
      "gium": 8379,
      "1996": 8380,
      "dam": 8381,
      "Ġspaces": 8382,
      "month": 8383,
      "Ġalleged": 8384,
      "Ġopportunity": 8385,
      "Ġsnapshot": 8386,
      "oting": 8387,
      "Ġ1934": 8388,
      "Ġanglo": 8389,
      "Ġscheme": 8390,
      "Ġstatistical": 8391,
      "Ġ92": 8392,
      "Ġcake": 8393,
      "Ġtraditionally": 8394,
      "Ġminimum": 8395,
      "Ġcontinental": 8396,
      "compat": 8397,
      "kd": 8398,
      "Ġquantum": 8399,
      "burn": 8400,
      "van": 8401,
      "mc": 8402,
      "Ġrus": 8403,
      "testing": 8404,
      "hus": 8405,
      "114": 8406,
      "129": 8407,
      "Ġengaged": 8408,
      "Ġsouthwest": 8409,
      "loaded": 8410,
      "abet": 8411,
      "Ġregistry": 8412,
      "Ġnan": 8413,
      "Ġpretty": 8414,
      "Ġslaves": 8415,
      "Ġtechnique": 8416,
      "oen": 8417,
      "Ġlawrence": 8418,
      "Ġpropag": 8419,
      "omed": 8420,
      "enna": 8421,
      "kill": 8422,
      "estyle": 8423,
      "Ġaustrian": 8424,
      "Ġnorman": 8425,
      "catalog": 8426,
      "Ġuncle": 8427,
      "Ġarrival": 8428,
      "Ġhandler": 8429,
      "math": 8430,
      "Ġcapable": 8431,
      "160": 8432,
      "Ġindicate": 8433,
      "Ġscenes": 8434,
      "Ġgoth": 8435,
      "omo": 8436,
      "foreach": 8437,
      "atherine": 8438,
      "Ġrenew": 8439,
      "san": 8440,
      "159": 8441,
      "Ġhuge": 8442,
      "ethe": 8443,
      "Ġteaching": 8444,
      "Ġtear": 8445,
      "Ġconsult": 8446,
      "Ġcolorado": 8447,
      "Ġseparated": 8448,
      "Ġcoat": 8449,
      "cri": 8450,
      "Ġcommonwealth": 8451,
      "Ġbrun": 8452,
      "Ġsocialist": 8453,
      "Ġalfred": 8454,
      "Ġallen": 8455,
      "Ġvalidate": 8456,
      "Ġwheel": 8457,
      "Ġ97": 8458,
      "een": 8459,
      "018": 8460,
      "Ġtennessee": 8461,
      "ighth": 8462,
      "mel": 8463,
      "Ġhypothes": 8464,
      "Ġpending": 8465,
      "Ġern": 8466,
      "iang": 8467,
      "Ġmathematic": 8468,
      "Ġprovinces": 8469,
      "Ġintegration": 8470,
      "Ġdefine": 8471,
      "Ġwarranties": 8472,
      "ordon": 8473,
      "Ġoffering": 8474,
      "mor": 8475,
      "oster": 8476,
      "Ġilleg": 8477,
      "rs": 8478,
      "Ġ1917": 8479,
      "Ġoffers": 8480,
      "Ġembed": 8481,
      "Ġwarri": 8482,
      "``": 8483,
      "video": 8484,
      "Ġdum": 8485,
      "Ġinterests": 8486,
      "Ġnortheast": 8487,
      "Ġsympt": 8488,
      "Ġkiss": 8489,
      "Ġpopulations": 8490,
      "agu": 8491,
      ")]": 8492,
      "Ġinterpretation": 8493,
      "eb": 8494,
      "Ġrelief": 8495,
      "urance": 8496,
      "Ġbronze": 8497,
      "Ġconservation": 8498,
      "missing": 8499,
      ">>": 8500,
      "Ġdisappe": 8501,
      "Ġgenetic": 8502,
      "Ġhindu": 8503,
      "Ġdeclined": 8504,
      "Ġnut": 8505,
      "Ġswim": 8506,
      "Ġtheater": 8507,
      "Ġdogs": 8508,
      "Ġ76": 8509,
      "rib": 8510,
      "itzerland": 8511,
      "onto": 8512,
      "Ġlap": 8513,
      "nesota": 8514,
      "Ġbinary": 8515,
      "Ġreserv": 8516,
      "Ġmaps": 8517,
      "Ġdiss": 8518,
      "Ġresc": 8519,
      "Ġmaur": 8520,
      "iden": 8521,
      "Ġproviders": 8522,
      "bottom": 8523,
      ")),": 8524,
      "Ġhydrogen": 8525,
      "}-": 8526,
      "Ġconvert": 8527,
      "coming": 8528,
      "national": 8529,
      "emen": 8530,
      "hs": 8531,
      "Ġwhis": 8532,
      "130": 8533,
      "Ġinnov": 8534,
      "udes": 8535,
      "Ġhong": 8536,
      "Ġ('": 8537,
      "Ġexpos": 8538,
      "Ġemerged": 8539,
      "Ġexplos": 8540,
      "Ġdemocracy": 8541,
      "Ġcharacteristics": 8542,
      "Ã¢": 8543,
      "169": 8544,
      "Ġsynd": 8545,
      "Ġconsisting": 8546,
      "2015": 8547,
      "Ġpitch": 8548,
      "rator": 8549,
      "Ġchristians": 8550,
      "Ġ1910": 8551,
      "Ġrear": 8552,
      "named": 8553,
      "Ġnoqa": 8554,
      "Ġcosts": 8555,
      "Ġlapt": 8556,
      "Ġgang": 8557,
      "Ġconcerning": 8558,
      "ipality": 8559,
      "Ġattributed": 8560,
      "Ġelephant": 8561,
      "Ġlearn": 8562,
      "Ġcontroller": 8563,
      "Ġsick": 8564,
      "Ġrhy": 8565,
      "Ġcompat": 8566,
      "cut": 8567,
      "Ġoccasionally": 8568,
      "Ġcoalition": 8569,
      "states": 8570,
      "Ġpackage": 8571,
      "Ġhawaiian": 8572,
      "Ġ165": 8573,
      "Ġphon": 8574,
      "Ġbare": 8575,
      "Ġmoder": 8576,
      "Ġseconds": 8577,
      "Ġpink": 8578,
      "uerto": 8579,
      "Ġacknow": 8580,
      "Ġcompanion": 8581,
      "gal": 8582,
      "dep": 8583,
      "Ġsinging": 8584,
      "govern": 8585,
      "ogy": 8586,
      "Ġexperimental": 8587,
      "Ġ1922": 8588,
      "super": 8589,
      "Ġperiods": 8590,
      "Ġapollo": 8591,
      "Ġhebrew": 8592,
      "domin": 8593,
      "Ġallied": 8594,
      "Ġrice": 8595,
      "Ġ77": 8596,
      "Ġbin": 8597,
      "rations": 8598,
      "dj": 8599,
      "thew": 8600,
      "Ġdegrees": 8601,
      "Ġadmiral": 8602,
      "=[": 8603,
      "Ġbacter": 8604,
      "rules": 8605,
      "Ġ1921": 8606,
      "Ġcommod": 8607,
      "Ġpic": 8608,
      "Ġunus": 8609,
      "Ġdelta": 8610,
      "Ġcontinuous": 8611,
      "Ġindo": 8612,
      "enh": 8613,
      "Ġchanging": 8614,
      "strong": 8615,
      "Ġpreserved": 8616,
      "email": 8617,
      "Ġ>=": 8618,
      "Ġbibliography": 8619,
      "Ġdelivered": 8620,
      "Ġagree": 8621,
      "uuid": 8622,
      "Ġisa": 8623,
      "Ġwritings": 8624,
      "zona": 8625,
      "Ġimmigr": 8626,
      "127": 8627,
      "phe": 8628,
      "ifer": 8629,
      "Ġdc": 8630,
      "Ġintent": 8631,
      "Ġserb": 8632,
      "Ġneighbour": 8633,
      "Ġrepresenting": 8634,
      "Ġcler": 8635,
      "104": 8636,
      "Ġflood": 8637,
      "eld": 8638,
      "strategy": 8639,
      "Ġpseud": 8640,
      "Ġchairman": 8641,
      "Ġpublications": 8642,
      "179": 8643,
      "001": 8644,
      "Ġteach": 8645,
      "temp": 8646,
      "Ġprefer": 8647,
      "Ġcircumstances": 8648,
      "Ġarrow": 8649,
      "Ġchangedetection": 8650,
      "Ġattacked": 8651,
      "nections": 8652,
      "139": 8653,
      "Ġinvolving": 8654,
      "Ġprotestant": 8655,
      "pool": 8656,
      "Ġportugal": 8657,
      "Ġpasses": 8658,
      "Ġsurrounded": 8659,
      "asm": 8660,
      "Ġprices": 8661,
      "completed": 8662,
      "aic": 8663,
      "\"},": 8664,
      "Ġsuppose": 8665,
      "Ġing": 8666,
      "Ġduc": 8667,
      "Ġroy": 8668,
      "Ġatmosphere": 8669,
      "Ġlakes": 8670,
      "Ġroots": 8671,
      "oric": 8672,
      "Ġmatrix": 8673,
      "fac": 8674,
      "ulous": 8675,
      "fit": 8676,
      "Ġallies": 8677,
      "Ġguid": 8678,
      "Ġintellectual": 8679,
      "Ġpas": 8680,
      "Ġjos": 8681,
      "(['": 8682,
      "Ġpossess": 8683,
      "Ġ86": 8684,
      "reshold": 8685,
      "}),": 8686,
      "icted": 8687,
      "Ġdowntown": 8688,
      "Ġdesigns": 8689,
      "Ġhighways": 8690,
      "Ġ82": 8691,
      "emodel": 8692,
      "Ġmusician": 8693,
      "Ġmachines": 8694,
      "once": 8695,
      "Ġcopper": 8696,
      "Ġbarbar": 8697,
      "Ġrestored": 8698,
      "Ġ1924": 8699,
      "terminal": 8700,
      "apped": 8701,
      "ambiguation": 8702,
      "assistant": 8703,
      "Ġcertainly": 8704,
      "Ġvalidation": 8705,
      "liter": 8706,
      "Ġtransferred": 8707,
      "Ġformally": 8708,
      "Ġtransmission": 8709,
      "stdout": 8710,
      "Ġnob": 8711,
      "Ġsample": 8712,
      "rule": 8713,
      "ussian": 8714,
      "arations": 8715,
      "Ġvs": 8716,
      "Ġangular": 8717,
      "olis": 8718,
      "interval": 8719,
      "Ġfemin": 8720,
      "Ġenable": 8721,
      "Ġtemp": 8722,
      "Å«": 8723,
      "Ġpartly": 8724,
      "Ġmiller": 8725,
      "Ġretired": 8726,
      "Ġdebt": 8727,
      "Ġmoscow": 8728,
      "Ġ73": 8729,
      "Ġarizona": 8730,
      "Ġcultiv": 8731,
      "Ġolympics": 8732,
      "activity": 8733,
      "eps": 8734,
      "Ġchrom": 8735,
      "Ġmargaret": 8736,
      "Ġelectro": 8737,
      "Ġoccupation": 8738,
      "Ġafghanistan": 8739,
      "Ġtransit": 8740,
      "789": 8741,
      "........................": 8742,
      "Ġtob": 8743,
      "Ġabstract": 8744,
      "asf": 8745,
      "Ġphiladelphia": 8746,
      "Ġcraft": 8747,
      "formdata": 8748,
      "Ġmerely": 8749,
      "Ġchanc": 8750,
      "area": 8751,
      "Ġmusicians": 8752,
      "rapy": 8753,
      "175": 8754,
      "1987": 8755,
      "Ġlieuten": 8756,
      "Ġalan": 8757,
      "1985": 8758,
      "108": 8759,
      "Ġelectrical": 8760,
      "Ġtheorem": 8761,
      "Ġfool": 8762,
      "png": 8763,
      "ÙĦ": 8764,
      "Ġfans": 8765,
      "Ġ}]": 8766,
      "Ġliberty": 8767,
      "eton": 8768,
      "Ġpole": 8769,
      "fare": 8770,
      "Ġconcerns": 8771,
      "north": 8772,
      "Ġcorresponding": 8773,
      "Ġdepicted": 8774,
      "Ġwalked": 8775,
      "Ġpadding": 8776,
      "Ġlamb": 8777,
      "Ġturkish": 8778,
      "Ġperformances": 8779,
      "Ġreceiving": 8780,
      "189": 8781,
      "apsed": 8782,
      "Ġvolumes": 8783,
      "diff": 8784,
      "2014": 8785,
      "Ġfacult": 8786,
      "lower": 8787,
      "Ġassumed": 8788,
      "aliases": 8789,
      "raises": 8790,
      "Ġhide": 8791,
      "Ġtrouble": 8792,
      "Ġ\\": 8793,
      "Ġhosted": 8794,
      "Ġnorwegian": 8795,
      "Ġclin": 8796,
      "\"])": 8797,
      "Ġbernard": 8798,
      "Ġ1931": 8799,
      "exists": 8800,
      "Ġoffset": 8801,
      "Ġsixth": 8802,
      "Ġasf": 8803,
      "Ġfounding": 8804,
      "Ġstroke": 8805,
      "chron": 8806,
      "iously": 8807,
      "Ġhighlight": 8808,
      "Ġcharter": 8809,
      "coll": 8810,
      "Ġtmp": 8811,
      "Ġ169": 8812,
      "raction": 8813,
      "migr": 8814,
      "Ġkhan": 8815,
      "Ġexceed": 8816,
      "Ġliver": 8817,
      "die": 8818,
      "week": 8819,
      "Ġinstruction": 8820,
      "Ġusual": 8821,
      "Ġpainted": 8822,
      "just": 8823,
      "nat": 8824,
      "tol": 8825,
      "Ġverify": 8826,
      "Ġmembership": 8827,
      "180": 8828,
      "Ġcommem": 8829,
      "Ġreaching": 8830,
      "console": 8831,
      "Ġdevil": 8832,
      "Ġdetail": 8833,
      "uda": 8834,
      "Ġrum": 8835,
      "Ġneighborhood": 8836,
      "euro": 8837,
      "Ġreven": 8838,
      "Ġsty": 8839,
      "(\"#": 8840,
      "Ġasser": 8841,
      "raid": 8842,
      "ggle": 8843,
      "flag": 8844,
      "security": 8845,
      "Ġreb": 8846,
      "alo": 8847,
      "Ġviewed": 8848,
      "Ġreset": 8849,
      "fri": 8850,
      "erranean": 8851,
      "reference": 8852,
      "wick": 8853,
      "Ġexecute": 8854,
      "Ġcommitted": 8855,
      "resource": 8856,
      "Ġoperates": 8857,
      "Ġ1927": 8858,
      "tags": 8859,
      "Ġscout": 8860,
      "Ġanx": 8861,
      "Ġswitzerland": 8862,
      "atever": 8863,
      "Ġ87": 8864,
      "si": 8865,
      "Ġpir": 8866,
      "aki": 8867,
      "Ġsuccessor": 8868,
      "permission": 8869,
      "2020": 8870,
      "Ġexplain": 8871,
      "Ġchat": 8872,
      "songwriter": 8873,
      "Ġbent": 8874,
      "Ġvin": 8875,
      "ä¸": 8876,
      "Ġ1912": 8877,
      "Ġequation": 8878,
      "asian": 8879,
      "Ġmaritime": 8880,
      "ev": 8881,
      "Ġvertical": 8882,
      "Ġmm": 8883,
      "Ġought": 8884,
      "queries": 8885,
      "Ġpu": 8886,
      "Ġcompre": 8887,
      "Ġstem": 8888,
      "Ġplease": 8889,
      "Ġcad": 8890,
      "Ġinstructions": 8891,
      "ito": 8892,
      "fallback": 8893,
      "Ġexplor": 8894,
      "Ġmonument": 8895,
      "Ġ177": 8896,
      "Ġpleasure": 8897,
      "Ġcul": 8898,
      "Ġassistance": 8899,
      "Ġ84": 8900,
      "Ġdoctrine": 8901,
      "Ä±": 8902,
      "Ġsale": 8903,
      "Ġbought": 8904,
      "Ġromantic": 8905,
      "Ġadvis": 8906,
      "Ġhou": 8907,
      "Ġnavig": 8908,
      "Ġtub": 8909,
      "icide": 8910,
      "onts": 8911,
      "Ġarabic": 8912,
      "Ġsubmar": 8913,
      "Ġfaced": 8914,
      "Ġhart": 8915,
      "udi": 8916,
      "Ġfinn": 8917,
      "east": 8918,
      "Ġcopies": 8919,
      "Ġpent": 8920,
      "Ġrecre": 8921,
      "Ġaccompanied": 8922,
      "abc": 8923,
      "allowed": 8924,
      "Ġsilence": 8925,
      "Ġrocks": 8926,
      "Ġreputation": 8927,
      "hammad": 8928,
      "Ġbeneath": 8929,
      "Ġtang": 8930,
      "Ġdust": 8931,
      "Ġrena": 8932,
      "Ġloyal": 8933,
      "Ġ1925": 8934,
      "disambiguation": 8935,
      "Ġverb": 8936,
      "--\"": 8937,
      "Ġgiant": 8938,
      "Ġpill": 8939,
      "Ġpor": 8940,
      "Ġflash": 8941,
      "Ġker": 8942,
      "165": 8943,
      "Ġalgorithm": 8944,
      "á¹": 8945,
      "umni": 8946,
      "Ġartific": 8947,
      "Ġbart": 8948,
      "eenth": 8949,
      "aurus": 8950,
      "192": 8951,
      "Ġlaboratory": 8952,
      "itors": 8953,
      "Ġstew": 8954,
      "Ġtact": 8955,
      "Ġmotorcycle": 8956,
      "expl": 8957,
      "Ġduration": 8958,
      "Ġanimated": 8959,
      "Ġcontents": 8960,
      "prison": 8961,
      "bishop": 8962,
      "Ġbuy": 8963,
      "owa": 8964,
      "Ġbegun": 8965,
      "Ġmike": 8966,
      "Ġlocale": 8967,
      "ruption": 8968,
      "Ġalge": 8969,
      "Ġadaptation": 8970,
      "Ġcoffee": 8971,
      "Ġfranklin": 8972,
      "Ġloaded": 8973,
      "Ġdeck": 8974,
      "hell": 8975,
      "leton": 8976,
      "family": 8977,
      "ãģ": 8978,
      "Ġ1926": 8979,
      "Ġslavery": 8980,
      "anny": 8981,
      "Ġcave": 8982,
      "su": 8983,
      "atar": 8984,
      "otst": 8985,
      "Ġtribe": 8986,
      "Ġbrad": 8987,
      "Ġcel": 8988,
      "Ġsignals": 8989,
      "Ġarchive": 8990,
      "Ġduty": 8991,
      "Ġinfantry": 8992,
      "Ġassum": 8993,
      "Ġswing": 8994,
      "mess": 8995,
      "yard": 8996,
      "Ġmeasured": 8997,
      "Ġibn": 8998,
      "Ġruntime": 8999,
      "Ġ\\`": 9000,
      "Ġ}],": 9001,
      "Ġwrest": 9002,
      "plane": 9003,
      "Ġquad": 9004,
      "Ġny": 9005,
      "osa": 9006,
      "acon": 9007,
      "former": 9008,
      "Ġsubjects": 9009,
      "bow": 9010,
      "Ġappeal": 9011,
      "Ġmassive": 9012,
      "Ġconversation": 9013,
      "Ġoperator": 9014,
      "iliar": 9015,
      "145": 9016,
      "Ġnavigation": 9017,
      "Ġanthony": 9018,
      "Ġcogn": 9019,
      "Ġstored": 9020,
      "Ġoffices": 9021,
      "Ġritual": 9022,
      "secret": 9023,
      "ounted": 9024,
      "Ġfloat": 9025,
      "inate": 9026,
      "Ġradical": 9027,
      "inus": 9028,
      "Ġdisplayed": 9029,
      "sal": 9030,
      "375": 9031,
      "Ġneuro": 9032,
      "Ġexisted": 9033,
      "Ġcrops": 9034,
      "origin": 9035,
      "medium": 9036,
      "Ġworkspace": 9037,
      "Ġfacility": 9038,
      "lah": 9039,
      "Ġparticles": 9040,
      "Ġchile": 9041,
      "Ġprinted": 9042,
      "Ġjuan": 9043,
      "Ġ1890": 9044,
      "reject": 9045,
      "osl": 9046,
      "122": 9047,
      "middle": 9048,
      "Ġkin": 9049,
      "christ": 9050,
      "regular": 9051,
      "Ġportrait": 9052,
      "comment": 9053,
      "Ġconcepts": 9054,
      "Ġdiamond": 9055,
      "Ġurg": 9056,
      "Ġenforce": 9057,
      "Ġprotein": 9058,
      "Ġhosts": 9059,
      "incorporated": 9060,
      "Ġaffili": 9061,
      "inf": 9062,
      "pc": 9063,
      "Ġsessions": 9064,
      "Ġbour": 9065,
      "749": 9066,
      "pi": 9067,
      "Ġapproval": 9068,
      "Ġmediterranean": 9069,
      "Ġshield": 9070,
      "Ġnoun": 9071,
      "Ġnur": 9072,
      "Ġpoems": 9073,
      "028": 9074,
      "Ġbasin": 9075,
      "hd": 9076,
      "Ġ{{": 9077,
      "709": 9078,
      "Ġhamilton": 9079,
      "abort": 9080,
      "cir": 9081,
      "][": 9082,
      "Ġaccompl": 9083,
      "Ġromans": 9084,
      "Ġont": 9085,
      "Ġcrossing": 9086,
      "accept": 9087,
      "Ġjet": 9088,
      "closed": 9089,
      "Ġ\"../../": 9090,
      "Ġkentucky": 9091,
      "Ġtony": 9092,
      "panel": 9093,
      "Ġstuff": 9094,
      "Ã¸": 9095,
      "Ġkennedy": 9096,
      "Ġward": 9097,
      "Ġpuerto": 9098,
      "());": 9099,
      "Ġukraine": 9100,
      "ication": 9101,
      "Ġreverse": 9102,
      "Ġathens": 9103,
      "Ġeducational": 9104,
      "anas": 9105,
      "Ġunderground": 9106,
      "Ġdriven": 9107,
      "Ġdistinguished": 9108,
      "Ġconcerned": 9109,
      "220": 9110,
      "except": 9111,
      "than": 9112,
      "Ġincreases": 9113,
      "Ã©s": 9114,
      "tis": 9115,
      "}</": 9116,
      "Ġko": 9117,
      "Ġdefin": 9118,
      "Ġleban": 9119,
      "Ġlieutenant": 9120,
      "ductor": 9121,
      "Ġswiss": 9122,
      "tod": 9123,
      "168": 9124,
      "dney": 9125,
      "Ġlean": 9126,
      "Ġtie": 9127,
      "?'": 9128,
      "Ġterritorial": 9129,
      "Ġkal": 9130,
      "Ġattributes": 9131,
      "implement": 9132,
      "ateral": 9133,
      "awesome": 9134,
      "arest": 9135,
      "Ġstruggle": 9136,
      "Ġstrategic": 9137,
      "Ġdal": 9138,
      "Ġbelgium": 9139,
      "Ġconstitu": 9140,
      "){": 9141,
      "olia": 9142,
      "Ġjefferson": 9143,
      "athered": 9144,
      "eg": 9145,
      "Ġhundreds": 9146,
      "501": 9147,
      "ifies": 9148,
      "Ġ1923": 9149,
      "Ġmatthew": 9150,
      "Ġtort": 9151,
      "rans": 9152,
      "Ġcarib": 9153,
      "Ġdollars": 9154,
      "Ġconventional": 9155,
      "Ġparameter": 9156,
      "Ġclubs": 9157,
      "Ġlex": 9158,
      "2019": 9159,
      "otstrap": 9160,
      "Ġbalance": 9161,
      "Ġentries": 9162,
      "Ġeug": 9163,
      "Ġaccused": 9164,
      "Ġantiqu": 9165,
      "Ġexcess": 9166,
      "agger": 9167,
      "tm": 9168,
      "Ġsupports": 9169,
      "Ġminnesota": 9170,
      "Ġmechanical": 9171,
      "Ġdismiss": 9172,
      "140": 9173,
      "Ġuncertain": 9174,
      "etext": 9175,
      "Ġexperiments": 9176,
      "Ġassess": 9177,
      "Ġsenator": 9178,
      "stro": 9179,
      "002": 9180,
      "Ġhash": 9181,
      "Ġgor": 9182,
      "Ġdominant": 9183,
      "confirm": 9184,
      "bot": 9185,
      "ube": 9186,
      "Ġapost": 9187,
      "Ġfled": 9188,
      "Ġisn": 9189,
      "Ġcompletion": 9190,
      "Ġmarks": 9191,
      "Ġalias": 9192,
      "Ġabbey": 9193,
      "Ġsacred": 9194,
      "Ġrolling": 9195,
      "Ġwy": 9196,
      "ocument": 9197,
      "aj": 9198,
      "Ġmaced": 9199,
      "Ġgermans": 9200,
      "Ġpurchased": 9201,
      "Ġatomic": 9202,
      "350": 9203,
      "consin": 9204,
      "Ġtrip": 9205,
      "Ġbehold": 9206,
      "lass": 9207,
      "Ġblow": 9208,
      "Ġacceler": 9209,
      "Ġcomed": 9210,
      "Ġinvestigation": 9211,
      "Ġignore": 9212,
      "Ġthemes": 9213,
      "dx": 9214,
      "Ġdinner": 9215,
      "009": 9216,
      "Ġnov": 9217,
      "249": 9218,
      "tym": 9219,
      "Ġhungarian": 9220,
      "Ġgets": 9221,
      "Ġinterested": 9222,
      "iki": 9223,
      "tooltip": 9224,
      "aus": 9225,
      "treat": 9226,
      "develop": 9227,
      "Ġministers": 9228,
      "Î±": 9229,
      "Ġtet": 9230,
      "third": 9231,
      "dtype": 9232,
      "Ġsuspect": 9233,
      "Ġexcell": 9234,
      "otte": 9235,
      "Ġross": 9236,
      "Ġfinish": 9237,
      "Ġlouisiana": 9238,
      "Ġgenre": 9239,
      "Ġrebellion": 9240,
      "Ġlying": 9241,
      "zi": 9242,
      "Ġcemet": 9243,
      "Ġnod": 9244,
      "Ġvolcan": 9245,
      "Ġprisoners": 9246,
      "Ġforming": 9247,
      "parsed": 9248,
      "Ġbeforeeach": 9249,
      "Ġcotton": 9250,
      "Ġ{};": 9251,
      "Ġluther": 9252,
      "Ġcemetery": 9253,
      "Ġwatching": 9254,
      "Ġstick": 9255,
      "Ġannex": 9256,
[...]
